node {
  name: "global_step/Initializer/zeros/shape_as_tensor"
  op: "Const"
  attr {
    key: "_class"
    value {
      list {
        s: "loc:@global_step"
      }
    }
  }
  attr {
    key: "_output_shapes"
    value {
      list {
        shape {
          dim {
          }
        }
      }
    }
  }
  attr {
    key: "dtype"
    value {
      type: DT_INT32
    }
  }
  attr {
    key: "value"
    value {
      tensor {
        dtype: DT_INT32
        tensor_shape {
          dim {
          }
        }
      }
    }
  }
}
node {
  name: "global_step/Initializer/zeros/Const"
  op: "Const"
  attr {
    key: "_class"
    value {
      list {
        s: "loc:@global_step"
      }
    }
  }
  attr {
    key: "_output_shapes"
    value {
      list {
        shape {
        }
      }
    }
  }
  attr {
    key: "dtype"
    value {
      type: DT_INT64
    }
  }
  attr {
    key: "value"
    value {
      tensor {
        dtype: DT_INT64
        tensor_shape {
        }
        int64_val: 0
      }
    }
  }
}
node {
  name: "global_step/Initializer/zeros"
  op: "Fill"
  input: "global_step/Initializer/zeros/shape_as_tensor"
  input: "global_step/Initializer/zeros/Const"
  attr {
    key: "T"
    value {
      type: DT_INT64
    }
  }
  attr {
    key: "_class"
    value {
      list {
        s: "loc:@global_step"
      }
    }
  }
  attr {
    key: "_output_shapes"
    value {
      list {
        shape {
        }
      }
    }
  }
  attr {
    key: "index_type"
    value {
      type: DT_INT32
    }
  }
}
node {
  name: "global_step"
  op: "VariableV2"
  attr {
    key: "_class"
    value {
      list {
        s: "loc:@global_step"
      }
    }
  }
  attr {
    key: "_output_shapes"
    value {
      list {
        shape {
        }
      }
    }
  }
  attr {
    key: "container"
    value {
      s: ""
    }
  }
  attr {
    key: "dtype"
    value {
      type: DT_INT64
    }
  }
  attr {
    key: "shape"
    value {
      shape {
      }
    }
  }
  attr {
    key: "shared_name"
    value {
      s: ""
    }
  }
}
node {
  name: "global_step/Assign"
  op: "Assign"
  input: "global_step"
  input: "global_step/Initializer/zeros"
  attr {
    key: "T"
    value {
      type: DT_INT64
    }
  }
  attr {
    key: "_class"
    value {
      list {
        s: "loc:@global_step"
      }
    }
  }
  attr {
    key: "_output_shapes"
    value {
      list {
        shape {
        }
      }
    }
  }
  attr {
    key: "use_locking"
    value {
      b: true
    }
  }
  attr {
    key: "validate_shape"
    value {
      b: true
    }
  }
}
node {
  name: "global_step/read"
  op: "Identity"
  input: "global_step"
  attr {
    key: "T"
    value {
      type: DT_INT64
    }
  }
  attr {
    key: "_class"
    value {
      list {
        s: "loc:@global_step"
      }
    }
  }
  attr {
    key: "_output_shapes"
    value {
      list {
        shape {
        }
      }
    }
  }
}
node {
  name: "global_step/IsVariableInitialized"
  op: "IsVariableInitialized"
  input: "global_step"
  attr {
    key: "_class"
    value {
      list {
        s: "loc:@global_step"
      }
    }
  }
  attr {
    key: "_output_shapes"
    value {
      list {
        shape {
        }
      }
    }
  }
  attr {
    key: "dtype"
    value {
      type: DT_INT64
    }
  }
}
node {
  name: "global_step/cond/Switch"
  op: "Switch"
  input: "global_step/IsVariableInitialized"
  input: "global_step/IsVariableInitialized"
  attr {
    key: "T"
    value {
      type: DT_BOOL
    }
  }
  attr {
    key: "_output_shapes"
    value {
      list {
        shape {
        }
        shape {
        }
      }
    }
  }
}
node {
  name: "global_step/cond/switch_t"
  op: "Identity"
  input: "global_step/cond/Switch:1"
  attr {
    key: "T"
    value {
      type: DT_BOOL
    }
  }
  attr {
    key: "_output_shapes"
    value {
      list {
        shape {
        }
      }
    }
  }
}
node {
  name: "global_step/cond/switch_f"
  op: "Identity"
  input: "global_step/cond/Switch"
  attr {
    key: "T"
    value {
      type: DT_BOOL
    }
  }
  attr {
    key: "_output_shapes"
    value {
      list {
        shape {
        }
      }
    }
  }
}
node {
  name: "global_step/cond/pred_id"
  op: "Identity"
  input: "global_step/IsVariableInitialized"
  attr {
    key: "T"
    value {
      type: DT_BOOL
    }
  }
  attr {
    key: "_output_shapes"
    value {
      list {
        shape {
        }
      }
    }
  }
}
node {
  name: "global_step/cond/read"
  op: "Identity"
  input: "global_step/cond/read/Switch:1"
  attr {
    key: "T"
    value {
      type: DT_INT64
    }
  }
  attr {
    key: "_output_shapes"
    value {
      list {
        shape {
        }
      }
    }
  }
}
node {
  name: "global_step/cond/read/Switch"
  op: "RefSwitch"
  input: "global_step"
  input: "global_step/cond/pred_id"
  attr {
    key: "T"
    value {
      type: DT_INT64
    }
  }
  attr {
    key: "_class"
    value {
      list {
        s: "loc:@global_step"
      }
    }
  }
  attr {
    key: "_output_shapes"
    value {
      list {
        shape {
        }
        shape {
        }
      }
    }
  }
}
node {
  name: "global_step/cond/Switch_1"
  op: "Switch"
  input: "global_step/Initializer/zeros"
  input: "global_step/cond/pred_id"
  attr {
    key: "T"
    value {
      type: DT_INT64
    }
  }
  attr {
    key: "_class"
    value {
      list {
        s: "loc:@global_step"
      }
    }
  }
  attr {
    key: "_output_shapes"
    value {
      list {
        shape {
        }
        shape {
        }
      }
    }
  }
}
node {
  name: "global_step/cond/Merge"
  op: "Merge"
  input: "global_step/cond/Switch_1"
  input: "global_step/cond/read"
  attr {
    key: "N"
    value {
      i: 2
    }
  }
  attr {
    key: "T"
    value {
      type: DT_INT64
    }
  }
  attr {
    key: "_output_shapes"
    value {
      list {
        shape {
        }
        shape {
        }
      }
    }
  }
}
node {
  name: "global_step/add/y"
  op: "Const"
  attr {
    key: "_output_shapes"
    value {
      list {
        shape {
        }
      }
    }
  }
  attr {
    key: "dtype"
    value {
      type: DT_INT64
    }
  }
  attr {
    key: "value"
    value {
      tensor {
        dtype: DT_INT64
        tensor_shape {
        }
        int64_val: 0
      }
    }
  }
}
node {
  name: "global_step/add"
  op: "Add"
  input: "global_step/cond/Merge"
  input: "global_step/add/y"
  attr {
    key: "T"
    value {
      type: DT_INT64
    }
  }
  attr {
    key: "_output_shapes"
    value {
      list {
        shape {
        }
      }
    }
  }
}
node {
  name: "tensors/component_0"
  op: "Const"
  device: "/device:CPU:0"
  attr {
    key: "_output_shapes"
    value {
      list {
        shape {
          dim {
            size: 999
          }
          dim {
            size: 3
          }
        }
      }
    }
  }
  attr {
    key: "dtype"
    value {
      type: DT_FLOAT
    }
  }
  attr {
    key: "value"
    value {
      tensor {
        dtype: DT_FLOAT
        tensor_shape {
          dim {
            size: 999
          }
          dim {
            size: 3
          }
        }
        tensor_content: "\327\2430?\354Q\270=\217\302\365=\366(\\?\n\327\243=\217\302u>\000\000\200?\217\3025?\\\217B?\000\000\200?{\024.?H\341:?{\024n?\n\327#?{\024.?\315\314L?\315\314\014?\341z\024?\315\314\014?\244p\275>\315\314\314>\000\000\200?\000\000@?\315\314L?\000\000\200?\217\3025?\270\036E?{\024n?\303\365(?\354Q8?\315\314L?\205\353\021?R\270\036?\315\314\014?\024\256\307>=\n\327>\366(\\?\256G\341>\341z\024?\000\000\200?\\\217\002?\037\205+?{\024n?\327\243\360>R\270\036?\315\314L?\205\353\321>q=\n?\315\314\014?)\\\217>\354Q\270>\000\000\200?\327\243p?\217\302u?{\024n?\256Ga?fff?\315\314L?\\\217B?\270\036E?\315\314\014?\\\217\002?\024\256\007?\000\000\200?\217\302u>=\n\027?{\024n?\037\205k>\315\314\014?\315\314L?\315\314L>\327\243\360>\315\314\014?\270\036\005>\n\327\243>\000\000\200?\205\353\321>\217\3025?\000\000\200?\366(\334>\217\3025?{\024n?=\n\327>ff&?\315\314L?\\\217\302>)\\\017?\315\314\014?\037\205k>\\\217\302>\024\256\007?\232\231\031>{\024\256>\000\000\200?\n\327\243=\341z\024?{\024n?)\\\217=q=\n?\315\314L?\217\302u=\037\205\353>\315\314\014?\n\327#=R\270\236>\000\000\200?\315\314L>333?{\024n?\\\217B>ff&?\315\314L?\n\327#>)\\\017?\315\314\014?\256G\341=\\\217\302>\024\256G?\n\327\243=\270\036\005?\205\353Q?\270\036\005>)\\\017?\232\231Y?\256G\341>=\nW?\000\000\200?\\\217\002?H\341z?{\024n?\217\302\365>\303\365h?\315\314L?\205\353\321>q=J?\315\314\014?)\\\217>q=\n?\232\231Y?\000\000@?\232\231Y?\000\000\200?\256Ga?\000\000\200?{\024n?\205\353Q?{\024n?\315\314L?\217\3025?\315\314L?\315\314\014?\217\302\365>\315\314\014?\000\000\200?H\341:?\000\000\200?{\024n?{\024.?{\024n?\315\314L?=\n\027?\315\314L?\315\314\014?\315\314\314>\315\314\014?R\270^?\256G!?R\270^?{\024n?\\\217\002?{\024n?\000\000\200?\000\000\000\000\000\000\200?{\024n?\000\000\000\000{\024n?\315\314L?\000\000\000\000\315\314L?\315\314\014?\000\000\000\000\315\314\014?\000\000\000?\000\000\000\000\000\000\000?H\341:?\303\365\250>\341zT?\256Ga?\315\314\314>\000\000\200?\205\353Q?\244p\275>{\024n?\217\3025?\n\327\243>\315\314L?\217\302\365>\256Ga>\315\314\014?\341z\024?\000\000\000\000\341zT?\232\231\031?\315\314L>\315\314L?\000\000@?\217\302u>\000\000\200?333?\037\205k>{\024n?\232\231\031?\315\314L>\315\314L?\205\353\321>\270\036\005>\315\314\014?\341z\224>\000\000\000\000\\\217\002?q=\n?{\024.>\n\327c?\366(\034?\\\217B>\000\000\200?\205\353\021?{\024.>{\024n?H\341\372>\232\231\031>\315\314L?\303\365\250>\315\314\314=\315\314\014?\341z\024?\256G\341>\366(\\?\037\205+?\\\217\002?\000\000\200?R\270\036?\327\243\360>{\024n?q=\n?\205\353\321>\315\314L?\354Q\270>)\\\217>\315\314\014?)\\\217>\217\302u>\315\314\014?\270\036\005?\256G\341>\000\000\200?\217\302\365>\205\353\321>{\024n?=\n\327>33\263>\315\314L?\\\217\002?\256G\341>\000\000\200?\217\302\365>\315\314\314>{\024n?\205\353\321>33\263>\315\314L?)\\\217>\217\302u>\315\314\014?\354Qx?\354Qx?\000\000\200?fff?fff?H\341z?\000\000\000\000\000\000\000\000\000\000\200?\000\000\000\000\000\000\000\000{\024n?\000\000\000\000\000\000\000\000\315\314L?\000\000\000\000\000\000\000\000\315\314\014?\000\000\000\000\000\000\000\000\000\000\000?\315\314\314=\315\314\314=\256G\341>\217\302u>33\263>\037\205+?\000\000\200>\205\353\321>\256Ga?)\\\217>\037\205\353>\000\000\200?\270\036\205>\366(\334>{\024n?\037\205k>\244p\275>\315\314L?\232\231\031>\000\000\200>\315\314\014?\024\256\307>\341z\024?{\024n?\327\2430?\270\036E?R\270^?q=J?\256Ga?\000\000\200?\244p=?\205\353Q?{\024n?\n\327#?\217\3025?\315\314L?\366(\334>\217\302\365>\315\314\014?\327\243\360>\024\256\007?\232\231\031?\256G\341>\000\000\000?)\\\017?\024\256G?\n\327c?\000\000\200?H\341:?\341zT?{\024n?R\270\036?\217\3025?\315\314L?=\n\327>\217\302\365>\315\314\014?\217\302\365=)\\\017?\000\000\200?\256G\341=\024\256\007?{\024n?\354Q\270=ff\346>\315\314L?\217\302u=R\270\236>\315\314\014?\327\243p?\354Qx?\000\000\200?q=\212>\\\217\002?\217\3025?\024\256\307>\354Q8?\000\000\200?\354Q\270>\037\205+?{\024n?R\270\236>\341z\024?\315\314L?=\nW>\024\256\307>\315\314\014?\024\256\007?)\\O?H\341z?\327\2430?\n\327c?\000\000\200?\n\327#?\341zT?{\024n?\315\314\014?\217\3025?\315\314L?\\\217\302>\217\302\365>\315\314\014?\024\256\007?)\\O?\000\000\200?H\341\372>\000\000@?{\024n?=\n\327>ff&?\315\314L?\341z\224>\256G\341>\315\314\014?\024\256\007?)\\O?\037\205k?\000\000\000\000\000\000@?\000\000\200?\000\000\000\000333?{\024n?\000\000\000\000\232\231\031?\315\314L?\000\000\000\000\205\353\321>\315\314\014?\315\314L>\256G!?q=J?{\024.?\232\231Y?fff?\000\000@?\327\243p?\000\000\200?333?R\270^?{\024n?\232\231\031?\000\000@?\315\314L?\205\353\321>\\\217\002?\315\314\014?\327\2430?\256Ga?fff?\232\231\031?\217\302u?\000\000\200?)\\\017?fff?{\024n?\217\302\365>\270\036E?\315\314L?\303\365\250>\024\256\007?\315\314\014?\000\000\000\000\217\302u?\000\000\200?\000\000\000\000fff?{\024n?\000\000\000\000\270\036E?\315\314L?\000\000\000\000\024\256\007?\315\314\014?\244p\275>R\270\036?\256G!?\000\000\000\000)\\O?\205\353Q?\327\243p?\000\000\200?\000\000\200?\256Ga?{\024n?{\024n?\\\217B?\315\314L?\315\314L?\\\217\002?\315\314\014?\315\314\014?\256Ga?\000\000\200?\000\000\200?\205\353Q?{\024n?{\024n?\217\3025?\315\314L?\315\314L?\217\302\365>\315\314\014?\315\314\014?H\341:?\000\000\200?\000\000\200?{\024.?{\024n?{\024n?=\n\027?\315\314L?\315\314L?\315\314\314>\315\314\014?\315\314\014?\354Q8>R\270\236>R\270\236>=\n\027?\000\000\200?\000\000\200?\315\314\014?{\024n?{\024n?\327\243\360>\315\314L?\315\314L?\n\327\243>\315\314\014?\315\314\014?\000\000\000\000\000\000\200?\000\000\200?\000\000\000\000{\024n?{\024n?\000\000\000\000\315\314L?\315\314L?\000\000\000\000\315\314\014?\315\314\014?\000\000\000\000\000\000\000?\000\000\000?)\\\217>\205\353Q?\315\314L?\270\036\005>333?\037\205+?\n\327#<\303\365(?R\270\036?\000\000\200>\256Ga?\205\353Q?\000\000\000?q=\n?\024\256\007?\000\000\000\000\024\256G?\315\314\014?\000\000\000?\000\000\200?\341zT?\037\205\353>{\024n?\024\256G?\315\314\314>\315\314L?\037\205+?q=\212>\315\314\014?ff\346>\000\000\000\000H\341z?\232\231\031?\217\302u?\000\000\200?H\341z?\000\000\000\000\000\000\200?\000\000\000?\000\000\000\000{\024n?\037\205\353>\000\000\000\000\315\314L?\315\314\314>\000\000\000\000\315\314\014?q=\212>\217\302u>333?\256G\341>\303\365\250>\000\000\200?R\270\036?R\270\236>{\024n?\341z\024?\270\036\205>\315\314L?\000\000\000?\354Q8>\315\314\014?{\024\256>\000\000\000\000q=J?{\024\256>\244p=?\244p}?q=J?\217\302u>\205\353\021?\000\000\200>\327\243p?\000\000\200?\327\243p?\256Ga?{\024n?\256Ga?\\\217B?\315\314L?\\\217B?\\\217\002?\315\314\014?\\\217\002?)\\\017?\244p=?)\\\017?\\\217B?\000\000\200?\\\217B?\217\3025?{\024n?\217\3025?\366(\034?\315\314L?\366(\034?\205\353\321>\315\314\014?\205\353\321>\232\231\031?H\341z?\232\231\031?\232\231\031?\000\000\200?\232\231\031?)\\\017?{\024n?)\\\017?H\341\372>\315\314L?H\341\372>\303\365\250>\315\314\014?\303\365\250>\315\314L>\315\314L?\315\314L>\270\036\005>\315\314\014?\270\036\005>\000\000\000\000\000\000\200?\000\000\000\000\000\000\000\000{\024n?\000\000\000\000\000\000\000\000\315\314L?\000\000\000\000\000\000\000\000\315\314\014?\000\000\000\000\000\000\000\000\000\000\000?\000\000\000\000\000\000\000\000\024\256\307>\000\000\000\000\\\217B>\000\000\000?\n\327\243=H\341\372>\244p}?\000\000\000\000\000\000\000?\000\000\200?\000\000\000\000\037\205\353>{\024n?\000\000\000\000\315\314\314>\315\314L?\000\000\000\000q=\212>\315\314\014?\000\000\000\000{\024.?\000\000\200?\354Q8>q=J?\000\000\200?\256G\341>\244p=?{\024n?\205\353\321>\n\327#?\315\314L?33\263>\366(\334>\315\314\014?\217\302u>\303\365\250>=\n\327>\354Q8>=\n\327>)\\\017?)\\\017>\000\000@?\000\000\200?\217\302u>333?{\024n?\037\205k>\232\231\031?\315\314L?\315\314L>\205\353\321>\315\314\014?\270\036\005>\000\000\200?\000\000\200?\327\243p?{\024n?{\024n?\256Ga?\315\314L?\315\314L?\\\217B?\315\314\014?\315\314\014?\\\217\002?\217\302u?\217\302u?\366(\\?\000\000\200?\000\000\200?\256Ga?{\024n?{\024n?\205\353Q?\315\314L?\315\314L?\217\3025?\315\314\014?\315\314\014?\217\302\365>H\341z?H\341z?\205\353Q?\000\000\200?\000\000\200?\000\000\000\000{\024n?{\024n?\000\000\000\000\315\314L?\315\314L?\000\000\000\000\315\314\014?\315\314\014?\000\000\000\000\000\000\000?\000\000\000?\205\353\321>\000\000\000?\000\000\000?\000\000\000\000\244p=?\354Q8?=\n\327>\000\000\200?\217\302u?)\\\017?{\024n?fff?\270\036\005?\315\314L?\024\256G?ff\346>\315\314\014?\024\256\007?R\270\236>\327\243p?fff?\315\314\014?{\024n?\303\365h?\037\205+?\000\000\200?H\341z?\315\314L?{\024n?\303\365h?\000\000@?\315\314L?q=J?ff&?\315\314\014?q=\n?\256G\341>\000\000\200?{\024n?\315\314\014?{\024n?\366(\\?\\\217\002?\315\314L?\000\000@?\256G\341>\315\314\014?\\\217\002?\232\231\231>\n\327c?)\\O?{\024\256>\000\000\200?=\nW?\000\000\000\000{\024n?q=J?\000\000\000\000\315\314L?{\024.?\000\000\000\000\315\314\014?\037\205\353>\000\000\000\000\000\000\200?\354Qx?\366(\\?{\024n?\303\365h?\315\314L?\315\314L?\024\256G?\327\2430?\315\314\014?\024\256\007?\327\243\360>\232\231Y?ff&?\270\036\005>\000\000\200?\\\217B?\232\231\031>{\024n?\217\3025?\270\036\005>\315\314L?\366(\034?\256G\341=\315\314\014?\205\353\321>\n\327\243=\354Q8?\024\256\007?\n\327#=\000\000\200?H\341:?\217\302u={\024n?{\024.?\315\314L=\315\314L?\341z\024?\315\314L=\315\314\014?\315\314\314>\217\302\365<\000\000\200?ff&?\000\000\000\000{\024n?\232\231\031?\000\000\000\000\315\314L?\270\036\005?\000\000\000\000\315\314\014?33\263>\000\000\000\000\000\000\200?H\341z?\327\243p?\244p}?\217\302u?fff?\217\302u?R\270^?333?\000\000\200?\303\365h?H\341:?{\024n?\232\231Y?{\024.?\315\314L?H\341:?=\n\027?\315\314\014?H\341\372>\315\314\314>\000\000\200?\n\327c?\217\3025?\000\000\200?\327\243p?=\nW?\000\000\200?\037\205k?\315\314L?\000\000\200?R\270^?{\024.?{\024n?)\\O?\256G!?\315\314L?333?\315\314\014?\315\314\014?\327\243\360>\244p\275>\244p}?fff?q=J?\205\353Q?\217\3025?\315\314\014?\366(\034?\315\314\314>\217\302\365=\000\000\200?\232\231\031?)\\\217=H\341z?\037\205k?=\nW?\000\000\200?\327\243p?\366(\\?{\024n?R\270^?\315\314L?\315\314L?\000\000@?\327\2430?\315\314\014?\\\217\002?\327\243\360>R\270^?\354Q8?\024\256\007?\000\000\200?\341zT?\366(\034?{\024n?\270\036E?\205\353\021?\315\314L?\037\205+?H\341\372>\315\314\014?ff\346>\303\365\250>\000\000\200?\n\327c?\270\036E?{\024n?=\nW?\354Q8?\315\314L?\354Q8?R\270\036?\315\314\014?H\341\372>=\n\327>\n\327c?\303\365(?\205\353\321>{\024n?\205\353\021?\270\036\005>\000\000\200?\315\314\014?\000\000\000\000\000\000\200?\000\000\000?\000\000\000\000{\024n?\037\205\353>\000\000\000\000\315\314L?\315\314\314>\000\000\000\000\315\314\014?q=\212>\000\000\000\000\000\000\200?\000\000\000?\000\000\000\000\000\000\200?ff&?R\270\236>{\024n?\232\231\031?\341z\224>\315\314L?\270\036\005?\000\000\200>\315\314\014?33\263>{\024.>H\341z?\327\243p?fff?\000\000\200?\232\231Y?H\341:?{\024n?\315\314L?{\024.?\315\314L?\327\2430?\341z\024?\315\314\014?\327\243\360>\315\314\314>\000\000\200?\217\302u?{\024n?{\024n?fff?R\270^?\315\314L?\270\036E?\000\000@?\315\314\014?\024\256\007?\\\217\002?\217\302u?\n\327#?\\\217\302>\024\256G?\\\217\302>\n\327\243=\205\353Q?\205\353\321>\217\302\365=\000\000\200?\000\000\000?)\\\017>{\024n?\037\205\353>\270\036\005>\315\314L?\315\314\314>\256G\341=\315\314\014?q=\212>)\\\217=\n\327#>)\\\017>\270\036\005>\000\000\200?H\341\372>\000\000\200>\000\000\200?\\\217\302>\n\327#<q=\n?=\nW>\217\302u=\256G!?\n\327\243>\354Q8>\000\000\200?\\\217\002?)\\\217>{\024n?\327\243\360>\270\036\205>\315\314L?\205\353\321>\256Ga>\315\314\014?)\\\217>\232\231\031>\000\000\200?\256G!?\217\302\365>{\024n?\341z\024?ff\346>\315\314L?\\\217\002?\\\217\302>\315\314\014?{\024\256>\270\036\205>\000\000\200?\000\000\000?R\270\236>\000\000\200?q=\212>\000\000\000\000{\024n?\000\000\200>\000\000\000\000\315\314L?\256Ga>\000\000\000\000\315\314\014?\232\231\031>\000\000\000\000\244p\275>\232\231\031>)\\\217=\303\365h?=\n\027?\217\302\365>\000\000\200?\315\314\014?\205\353\321>{\024n?\\\217\002?\\\217\302>\315\314L?\256G\341>\303\365\250>\315\314\014?\232\231\231>\256Ga>\000\000\200?ff\346>{\024\256>{\024n?=\n\327>R\270\236>\315\314L?\354Q\270>q=\212>\315\314\014?\217\302u>\354Q8>q=\n?\315\314L>)\\\017>\000\000\200?\024\256\307>)\\\217>{\024n?\354Q\270>\270\036\205>\315\314L?R\270\236>\256Ga>\315\314\014?=\nW>\232\231\031>H\341z?\000\000\000?ff\346>\000\000\200?\n\327c?\256Ga?{\024n?=\nW?\205\353Q?\315\314L?\354Q8?\217\3025?\315\314\014?H\341\372>\217\302\365>\000\000\200?H\341z?H\341z?{\024n?\303\365h?\303\365h?\315\314L?q=J?q=J?\315\314\014?q=\n?q=\n?\244p=?)\\\017?)\\\017?\000\000\200?\\\217B?\\\217B?{\024n?\217\3025?\217\3025?\315\314L?\366(\034?\366(\034?\315\314\014?\205\353\321>\205\353\321>\327\243p?\000\000\000?\000\000\000?\315\314L?\354Q\270>\354Q\270>\000\000\200?=\n\327>=\n\327>{\024n?\024\256\307>\024\256\307>\315\314\014?\037\205k>\037\205k>\315\314L?\303\365\250>\303\365\250>ff&?\n\327#>\n\327#>\000\000\200?\000\000\200>\000\000\200>{\024n?\037\205k>\037\205k>\315\314L?\315\314L>\315\314L>\315\314\014?)\\\017>)\\\017>333?\270\036\005>\270\036\005>\000\000\200?\\\217B>\\\217B>{\024n?{\024.>{\024.>\315\314L?\232\231\031>\232\231\031>\315\314\014?\315\314\314=\315\314\314=\000\000\200?\000\000\000\000\000\000\000\000{\024n?\000\000\000\000\000\000\000\000\315\314L?\000\000\000\000\000\000\000\000\315\314\014?\000\000\000\000\000\000\000\000\000\000\000?\000\000\000\000\000\000\000\000)\\\017?\256Ga>)\\\017?\256G\341>\256G\341>\024\256G?H\341\372>R\270\036?\000\000@?\256Ga>)\\\017?)\\\017?\256G\341>\024\256G?\256G\341>)\\\017?)\\\017?\256Ga>\270\036E?\\\217B?\037\205+?\024\256G?\256G\341>\256G\341>\303\365\250>\303\365\250>\303\365\250>\217\302\365=\217\302\365=\217\302\365=\n\327#>\n\327#>\n\327#>\n\327\243>\n\327\243>\n\327\243>\354Q\270>\354Q\270>\354Q\270>\270\036\005?\270\036\005?\270\036\005?)\\\017?)\\\017?)\\\017?\037\205+?\037\205+?\037\205+?\354Q8?\354Q8?\354Q8?\\\217B?\\\217B?\\\217B?\037\205k?\037\205k?\037\205k?\217\302u?\217\302u?\217\302u?\000\000\200?\000\000\200?\000\000\200?\217\302u?\217\302u?\217\302u?\366(\\?\366(\\?\366(\\?\341zT?\341zT?\341zT?\000\000@?\000\000@?\000\000@?\303\365(?\303\365(?\303\365(?\000\000\000?\000\000\000?\000\000\000?\205\353\321>\205\353\321>\205\353\321>\000\000\000\000\000\000\000\000\000\000\000\000\244p}?\244p}?\244p}?H\341z?H\341z?H\341z?\354Qx?\354Qx?\354Qx?\217\302u?\217\302u?\217\302u?33s?33s?33s?\327\243p?\327\243p?\327\243p?{\024n?{\024n?{\024n?\037\205k?\037\205k?\037\205k?\303\365h?\303\365h?\303\365h?fff?fff?fff?\n\327c?\n\327c?\n\327c?\256Ga?\256Ga?\256Ga?R\270^?R\270^?R\270^?\366(\\?\366(\\?\366(\\?\232\231Y?\232\231Y?\232\231Y?=\nW?=\nW?=\nW?\341zT?\341zT?\341zT?\205\353Q?\205\353Q?\205\353Q?)\\O?)\\O?)\\O?\315\314L?\315\314L?\315\314L?q=J?q=J?q=J?\024\256G?\024\256G?\024\256G?\270\036E?\270\036E?\270\036E?\\\217B?\\\217B?\\\217B?\000\000@?\000\000@?\000\000@?\244p=?\244p=?\244p=?H\341:?H\341:?H\341:?\354Q8?\354Q8?\354Q8?\217\3025?\217\3025?\217\3025?333?333?333?\327\2430?\327\2430?\327\2430?{\024.?{\024.?{\024.?\037\205+?\037\205+?\037\205+?\303\365(?\303\365(?\303\365(?ff&?ff&?ff&?\n\327#?\n\327#?\n\327#?\256G!?\256G!?\256G!?R\270\036?R\270\036?R\270\036?\366(\034?\366(\034?\366(\034?\232\231\031?\232\231\031?\232\231\031?=\n\027?=\n\027?=\n\027?\341z\024?\341z\024?\341z\024?\205\353\021?\205\353\021?\205\353\021?)\\\017?)\\\017?)\\\017?\315\314\014?\315\314\014?\315\314\014?q=\n?q=\n?q=\n?\024\256\007?\024\256\007?\024\256\007?\270\036\005?\270\036\005?\270\036\005?\\\217\002?\\\217\002?\\\217\002?\000\000\000?\000\000\000?\000\000\000?H\341\372>H\341\372>H\341\372>\217\302\365>\217\302\365>\217\302\365>\327\243\360>\327\243\360>\327\243\360>\037\205\353>\037\205\353>\037\205\353>ff\346>ff\346>ff\346>\256G\341>\256G\341>\256G\341>\366(\334>\366(\334>\366(\334>=\n\327>=\n\327>=\n\327>\205\353\321>\205\353\321>\205\353\321>\315\314\314>\315\314\314>\315\314\314>\024\256\307>\024\256\307>\024\256\307>\\\217\302>\\\217\302>\\\217\302>\244p\275>\244p\275>\244p\275>\354Q\270>\354Q\270>\354Q\270>33\263>33\263>33\263>{\024\256>{\024\256>{\024\256>\303\365\250>\303\365\250>\303\365\250>\n\327\243>\n\327\243>\n\327\243>R\270\236>R\270\236>R\270\236>\232\231\231>\232\231\231>\232\231\231>\341z\224>\341z\224>\341z\224>)\\\217>)\\\217>)\\\217>q=\212>q=\212>q=\212>\270\036\205>\270\036\205>\270\036\205>\000\000\200>\000\000\200>\000\000\200>\217\302u>\217\302u>\217\302u>\037\205k>\037\205k>\037\205k>\256Ga>\256Ga>\256Ga>=\nW>=\nW>=\nW>\315\314L>\315\314L>\315\314L>\\\217B>\\\217B>\\\217B>\354Q8>\354Q8>\354Q8>{\024.>{\024.>{\024.>\n\327#>\n\327#>\n\327#>\232\231\031>\232\231\031>\232\231\031>)\\\017>)\\\017>)\\\017>\270\036\005>\270\036\005>\270\036\005>\217\302\365=\217\302\365=\217\302\365=\256G\341=\256G\341=\256G\341=\315\314\314=\315\314\314=\315\314\314=\354Q\270=\354Q\270=\354Q\270=\n\327\243=\n\327\243=\n\327\243=)\\\217=)\\\217=)\\\217=\217\302u=\217\302u=\217\302u=\315\314L=\315\314L=\315\314L=\n\327#=\n\327#=\n\327#=\217\302\365<\217\302\365<\217\302\365<\n\327\243<\n\327\243<\n\327\243<\n\327#<\n\327#<\n\327#<\n\327#=\256Ga?\256Ga>\n\327#>\327\243p?R\270\236>\205\353\321>H\341:?\303\365h?\256Ga>\256Ga>\315\314L>\\\217B?\000\000\200>H\341\372>{\024.?\315\314L?\303\365(?\244p}?\n\327#?\256Ga?333?{\024.?=\n\327>=\n\327>\217\302u>\315\314L>\256Ga>\\\217\302>33s?\303\365h?\315\314L>=\n\327>\000\000\200>\303\365h?\366(\334>\354Q\270=\354Q\270>\341z\024?)\\\017?\\\217B>\256G!?R\270\036?\037\205k>\037\205k?H\341z?33\263>\315\314\314=\315\314L?\000\000\000\000\256G\341=R\270\236>\256Ga>\303\365h?{\024.>33\263>\256G\341=\037\205+?\256Ga>\354Q8?\217\302\365>\n\327#?\315\314L?\232\231Y?\n\327\243=\217\302u>\037\205k?\037\205\353>33s?\270\036\005>33\263>\256G\341=\354Q\270=\217\3025?=\nW>\217\302u?\024\256\307>\205\353Q?\232\231\031?\217\302u?\366(\334>)\\\017?\354Q8>\354Qx?\n\327c?\037\205+?\256Ga?\000\000\000\000\232\231Y?H\341:?\270\036\005>q=\212>\256G!?\354Q\270=\303\365\250>\n\327\243>\303\365h?\232\231\231>\315\314L?q=\n?\270\036E?\366(\334>\341zT?\256Ga?\354Q\270>\205\353Q?\327\2430?\354Q8>\270\036\005>\327\243p?=\nW>\315\314L=\037\205+?\037\205\353>\217\302u>\256G\341>\037\205\353>\354Q8>\232\231\031?{\024.>\244p\275>q=\n?333?\303\365h?\n\327#?\\\217\002?\205\353\021?\\\217\002?R\270\036?\217\3025?ff&?\n\327#=\366(\334>\270\036E?\205\353\021?\217\3025?\270\036\205>)\\\017?\315\314\014?\000\000\000\000\256Ga>\\\217\002?\232\231\031>\217\302\365=ff\346>\n\327c?ff\346>\354Q8>\217\302\365>=\nW>H\341:?\354Q8>{\024.>=\nW>)\\\017?\037\205\353>\n\327\243>\205\353Q?\n\327#<\315\314\314>\244p}?\000\000@?\\\217\302>\000\000\200?\303\365h?H\341:?H\341\372>\256G\341=\315\314L=\000\000\000\000{\024n?\217\302u>=\nW?\256Ga>\354Q\270=\327\2430?{\024n?\341z\024?\232\231Y?\\\217\002?R\270^?\327\243\360>\315\314\014?q=J?\217\3025?=\nW?\024\256G?\341z\024?\n\327\243=H\341:?\037\205+?)\\O?)\\\217>\327\243\360>\000\000\000\000{\024.>R\270^?H\341:?\315\314L=\270\036\005?fff?\270\036\005?)\\\017?\024\256G?33\263>\256G\341=\024\256\307>\341zT?\315\314L>\037\205k?\\\217\302>\\\217\302>\n\327#=\366(\334>\\\217B?\000\000\200>33s?ff&?H\341:?\217\302\365>\327\2430?\n\327#?\315\314\314>\232\231\031>\232\231\031>\\\217B>\327\243\360>\315\314\014?33\263>\315\314L=ff&?\341z\024?\024\256\307>\270\036\205>\244p}?H\341\372>{\024n?\n\327#>\000\000\200>H\341\372>\000\000\000\000\256G!?333?\217\302u?\341z\024?\327\2430?\232\231\031>\354Q8?\037\205k?\256Ga?ff\346>H\341z?\232\231Y?\217\302u==\n\027?)\\\017>\327\243p?\000\000\000\000\037\205k>\037\205k>\n\327\243<\354Q8?)\\\017>\354Qx?{\024.>\\\217\002?)\\\217>\303\365h?\341z\224>)\\\017?\354Q\270=\354Q8>\n\327\243=\n\327\243<\303\365\250>H\341:?33\263>\354Q8?)\\\217>{\024n?\303\365(?\217\302\365>\000\000\000\000\327\2430?\303\365\250>\n\327#>\205\353\321>\341z\224>\315\314\014?\217\302\365>{\024\256>\000\000\000?\\\217\302>33\263>\217\302\365<{\024.?\n\327#=\000\000\000?333?)\\\217=\217\302\365=\315\314L=)\\\017?\327\243\360>{\024.?\n\327#?\315\314L=)\\\217>\217\302\365=q=\212>\232\231\031>=\n\327>\256G\341=\366(\\?\037\205+?\000\000\000\000R\270\036?\037\205+?fff?\217\302\365<\315\314L=\217\302u=)\\\217=\205\353Q?=\nW?\217\302u?{\024.?\315\314\314=\n\327#<=\nW?\n\327#>\n\327c?\256Ga?\341z\024?)\\\017?=\nW?\n\327#<\037\205\353>\037\205\353>\037\205k>R\270^?\315\314L=\256G\341=\270\036\205>\\\217\302>=\nW>\354Q\270=\217\302\365<fff?\000\000@?\\\217B?\217\302u=\217\302\365<\205\353\321>\244p=?{\024.?\256G\341=\354Q8>\270\036\205>\315\314L>\256G\341>\303\365h?R\270^?\000\000\200>=\n\327>\327\2430?H\341:?{\024n?\n\327\243>\232\231\231>\327\243\360>\n\327#<\327\2430?\n\327#<H\341\372>\354Q\270>\244p}?33\263>H\341z?\354Q8>333?\n\327#=\205\353\021?\270\036\205>\354Q8>\n\327#>\217\302u=\n\327\243=\270\036E?\315\314L>\217\302\365>\205\353\021?\\\217B?R\270^?\n\327c?\232\231\031>\217\302\365=\315\314\314>\000\000\200>H\341\372>ff&?\232\231\231>)\\\217>\217\302\365>ff&?\315\314\314>\270\036\005?\256Ga?R\270\236>\000\000\200>\n\327\243<\315\314\314>\270\036E?\\\217\302>R\270^?\n\327\243>H\341z?H\341\372>\205\353\021?\366(\334>)\\O?\303\365\250>ff&?\205\353\021?\037\205k>\315\314L>\244p}?\n\327#>\n\327\243=\\\217\002?\\\217B?{\024.?\\\217\302>\\\217B?\217\302u?\\\217\002?\\\217B?\244p=?\327\2430?\341zT?\354Qx?\217\302\365=\315\314L?{\024.?\232\231\231>{\024n?\327\2430?H\341z?\366(\\?333?{\024.?\303\365\250>\270\036E?q=\n?\\\217B>=\n\327>q=\212>\303\365\250>\315\314L>\315\314\014?\000\000\000?\327\243\360>\366(\334>33\263>\024\256G?ff\346>\024\256\307>\024\256\307>\315\314\314=\366(\\?\256G\341>\315\314\314>\256Ga>\217\3025?\270\036\005?q=J?\037\205\353>fff?\366(\334>\024\256G?\366(\034?\\\217\002?333?\024\256\007?\354Q8>\303\365\250>q=\212>q=\212>fff?H\341:?{\024.>R\270\036?)\\O?)\\\217=\217\302u?\315\314L?\024\256\307>\315\314\014?H\341\372>\315\314\314>\037\205+?\303\365(?\000\000\200>ff&?\000\000\000?33\263>=\nW>\244p=?\256G\341>\000\000@?{\024.?{\024.?\232\231\231>q=\212>\000\000\200>\\\217\302>\354Q\270>\024\256G?=\n\027?\270\036\005>\n\327#<)\\\217=\\\217B>\232\231\031?\217\302\365>\217\302\365<q=\212>\303\365h?\217\3025?)\\\017?\n\327#>ff&?R\270\036?\000\000\200>=\n\327>\232\231\031?\n\327\243>\000\000\200?q=\n?)\\\217=\315\314L=R\270^?\244p}?33\263>\244p}?\n\327#?\354Q8>\354Q\270=\341z\024?\024\256G?=\n\027?\366(\334>\341z\024?=\n\027?\205\353Q?\217\302\365=\000\000\200?\\\217\002?{\024n?\354Q8?\256Ga>H\341:?\270\036E?)\\\217=\270\036\005>\\\217\302>\n\327\243=H\341\372>\217\302\365=\244p=?\217\3025?\232\231\031>ff&?\n\327\243<)\\O?\205\353Q?H\341\372>\037\205+?\\\217\302>=\nW>=\nW>\n\327\243={\024\256>\217\302\365>\315\314\014?)\\\217>ff\346>\n\327#=\327\243\360>\n\327\243<H\341:?\315\314\314>R\270\236>\n\327\243<\\\217\302>)\\O?=\nW>R\270\236>\315\314\314>\n\327c?\256Ga>\\\217B?ff\346>\327\243\360>\217\302u=\354Q8>\024\256G?\217\302u?\303\365(?\000\000\200?\000\000@?\n\327#<\n\327#?\217\302\365=\366(\\?\n\327\243=\256G!?\024\256G?\n\327#?\244p\275>q=\212>ff&?\000\000@?\327\243\360>q=\212>\270\036\005?\315\314L=\327\243\360>\256G!?R\270\036?\205\353Q?\000\000\000?\232\231\031>\315\314\314>\232\231\031?q=\n?\217\302\365=ff&?\217\302\365=\024\256\307>\354Qx?\315\314L=R\270^?\n\327#?\n\327\243>\217\302u?\315\314\314>\270\036\005>\217\3025?\354Qx?\256G\341>\256G\341>\n\327\243<\354Q\270>\232\231\031>\n\327#>\341z\024?\000\000\000?\327\243\360>\270\036\005>\217\302u?H\341\372>\232\231\031?H\341:?\n\327#?{\024n?\232\231\031?\315\314\314=\205\353\021?\256G!?\\\217\002?\256G!?{\024\256>{\024n?\366(\334>R\270^?H\341\372>H\341\372>R\270^?H\341z?\244p=?\n\327\243<\315\314L=\256G\341>\256G\341>\\\217B?\\\217\302>\037\205+?\315\314\014?\024\256\307>q=J?\037\205+?\315\314L>\315\314\314>\n\327\243<\n\327#<\217\302u>\270\036\005?\270\036\205>)\\O?\256Ga>\n\327c?\366(\034?\000\000@?\244p\275>q=\212>\354Q8?\232\231Y?\217\302\365>q=\212>\341z\224>\315\314\314>\n\327#>\354Qx?R\270\036?\303\365h?\\\217B>\217\302\365=\354Q\270>\256G\341=\256G\341=\205\353\021?\315\314\314>H\341\372>)\\O?\\\217B>\315\314\314=\232\231\031?\217\3025?\327\2430?\256G\341=R\270\036?\303\365h?)\\\017>=\nW?\327\243p?H\341\372>\327\243\360>\232\231\031>\232\231\031?q=\212>\315\314L?33\263>\315\314\014?\n\327#?R\270^?\315\314\014?q=J?\366(\\?\354Q8>\256Ga>\n\327c?{\024.?\037\205k>)\\O?fff?\232\231\031?\341z\024?\354Qx?)\\\217>\\\217\302>\303\365\250>\232\231\031>\354Q\270=\341z\024?\024\256G?H\341\372>\366(\\?\303\365h?)\\\017?\327\243\360>)\\O?\315\314L=\315\314L>\n\327\243<\\\217\002?\n\327#=\315\314L>\270\036\005?\354Q\270=\205\353Q?\232\231Y?=\nW?=\n\027?q=\n?\205\353\021?\244p\275>\315\314\314=\\\217B?\000\000@?=\nW?\303\365h?\\\217B?\232\231\031>{\024\256>\217\3025?\327\243\360>\232\231\031?ff\346>\000\000\200>\\\217\002?ff&?\341z\224>\205\353\021?\354Q8?\\\217\302>\256G\341>\256G!?)\\\017?\232\231\031?\024\256G?\315\314\314>\303\365\250>R\270\236>=\n\327>=\nW?\354Q\270>\366(\334>=\n\027?R\270\036?R\270\236>\327\243p?\\\217B>\\\217\002?\354Q8?\256Ga?\315\314L?\244p=?\354Q\270=\354Q\270>\n\327#?\232\231\231>\232\231\031>\n\327#?\000\000\200?{\024\256>\354Q8>\315\314\014?R\270\236>\n\327c?\232\231Y?33\263>\354Q\270>\270\036\005>\205\353\321>\000\000\200>\n\327#?=\nW>\232\231\031?\354Q8>\327\243\360>\037\205\353>\217\302u=\217\302u?\n\327c?\217\302\365<H\341z?\315\314L=\341z\224>\354Q\270>=\nW>{\024.>R\270^?\303\365\250>\n\327#<\354Q\270>\n\327\243=\303\365\250>\217\302u>\315\314\314>\341z\224>\327\243\360>\000\000\000?\341z\224>\366(\034?R\270\236>\205\353\321>\\\217B?{\024.?\270\036E?\000\000\200>\232\231\031>\n\327#<)\\O?\217\3025?\n\327#>\\\217\002?\000\000\200?\n\327#?=\nW?\205\353\321>\000\000\000?\217\302\365=\244p\275>\000\000\200>)\\\217>\217\302\365=\n\327\243=\341z\224>\232\231Y?\244p=?=\nW>q=J?\037\205+?33\263>\000\000\200>\000\000\200>\232\231Y?\217\302\365=H\341:?R\270\036?\354Q\270>R\270\036?{\024n?\366(\034?\n\327#?=\n\027?\303\365\250>{\024n?q=\n?\232\231\231>\205\353\021?\037\205\353>\232\231\031?\n\327\243<\217\302u?\354Q\270=\256Ga?q=J?\354Q\270=\217\302\365=\303\365h?\256Ga>\217\302u>ff\346>\244p=?33s?\341zT?R\270\236>=\n\327>)\\O?)\\\017>\n\327#=\303\365(?\217\302\365=H\341\372>\\\217\302>\341zT?=\n\327>\000\000@?\000\000\200?\270\036\005>\217\302u>\232\231Y?\256Ga?\217\302\365<\270\036\005>\n\327\243>=\n\327>{\024n?\256G\341>=\nW>\217\302\365=\256G\341==\nW>\\\217\302>\205\353\021?ff&?\232\231\031?\205\353\321>\024\256G?\315\314L>\327\243\360>\217\302\365<\217\302u>\232\231\031?\000\000\200?\000\000@?\270\036\005>\n\327#?\n\327#>\232\231Y?\\\217B?q=\n?)\\\217={\024\256>\232\231\031?\232\231Y?\315\314\014?\n\327#=\256G!?\270\036\005?\341z\224>ff&?\366(\\?q=J?\n\327c?\217\302\365=\341z\024?\327\243\360>\\\217\002?)\\\017?R\270\036?\\\217B>\000\000\200?\217\302\365=\232\231Y?\000\000@?\n\327\243>\217\302u=\n\327#<\n\327\243<\270\036\005?\n\327#?\217\302u=\205\353Q?\244p=?\037\205+?\366(\334>\000\000\000\000\256G\341=\024\256G?\232\231\031>)\\\217>\\\217\302>\315\314L?{\024.>\354Q8>\000\000\200>\315\314L?\354Q8>\354Q\270>\n\327#=\303\365h?q=J?\217\302u>\232\231\031?\244p}?\000\000\200>\354Q8?\n\327#>H\341z?\217\302\365=\303\365\250>\303\365(?fff?33s?\341zT?\217\302\365<\270\036\005?33s?33\263>\232\231\231>\217\302u?\354Q8>\n\327\243>R\270\036?\244p=?\205\353Q?\270\036\205>\366(\034?)\\\017>\341z\024?\354Q\270=\217\302\365=\244p}?\n\327\243<\354Qx?R\270^?\217\302\365=\217\302u=\217\3025?\270\036\005>\327\2430?\366(\034?33s?H\341z?q=J?{\024.?\256G\341>fff?{\024n?\327\243p?\217\302\365=\n\327#=\217\302\365=\n\327c?\256Ga?\354Q\270=\232\231\031>\037\205k>\037\205+?H\341\372>\037\205k>H\341:?{\024.>\303\365\250>ff&?ff\346>\341z\224>=\nW?fff?\341zT?\341z\024?\217\302\365=\354Q8?\\\217\002?\232\231\231>\341z\024?=\n\327>R\270\236>\270\036\005?)\\\017?\217\302\365=\232\231\031?\000\000\200?\341zT?\315\314L>\217\302\365<\303\365\250>\354Q\270>\256Ga?\000\000\200?\205\353Q?\315\314\014?\n\327#=\366(\334>\315\314\314=\n\327#>\\\217B>\n\327\243<\354Qx?\315\314\314>\024\256\007?q=\212>\n\327\243<ff&?=\nW>=\n\327>\354Q\270=\000\000\000?\024\256G?{\024n?\217\302\365<\n\327\243<\354Q\270>\000\000\200?\000\000\200>R\270^?)\\\217>\\\217B?\366(\034?33\263>33s?\000\000\000\000\256Ga?\024\256G?\\\217B?\\\217B>\244p=?\n\327\243>)\\\217=\217\302u=\366(\334>\232\231\031>R\270^?\354Q8>\341z\024?\256Ga?\n\327c?\327\243\360>\024\256G?\256G\341>\n\327#>q=\n?\\\217B?H\341:?\354Q8>\270\036\005>\244p=?\n\327\243<R\270\036?)\\\217>=\nW>\270\036\205>\244p=?q=\n?\n\327\243=\n\327\243<\n\327#<\244p=?\217\302u?\n\327#?\217\302u=\354Q\270>\n\327#?33s?33s?\270\036\005>\244p=?\315\314L?\270\036\005?\217\3025?fff?\315\314L?\n\327\243<H\341z?\270\036\005>\232\231Y?\256Ga>R\270\236>\232\231\031>33s?\n\327#>\217\302u?\000\000@?\244p}?=\nW>\315\314\014?\000\000\000?\354Q8>\366(\034?\\\217B>R\270\236>\232\231\031?\315\314\014?\037\205\353>\315\314\314>{\024.>=\n\027?\232\231\031>=\n\027?\270\036E?\\\217B?ff&?\256Ga>=\nW?\037\205\353>\315\314L>q=\n?\n\327#>\354Q8>q=\n?\303\365(?\341zT?\n\327\243>\024\256G?\037\205+?\000\000@?)\\\217=\n\327#?\n\327#>\256Ga>R\270^?\366(\334>\024\256\007?\303\365(?\315\314L>\n\327#>q=\n?\244p=?ff&?\217\302u?H\341\372>H\341z?\000\000\200?\232\231Y?\366(\\?\256G\341=\315\314L>=\nW?\256G\341>\n\327\243<\341z\024?\315\314L?{\024.?\n\327#>\217\302u?\315\314L?\000\000\000?\341z\024?\303\365\250>\\\217\302>\366(\\?\256G\341>\000\000\200>\303\365h?\232\231\031?)\\\217=\n\327#=H\341\372>\n\327c?\205\353\321>\315\314L?q=\n?\037\205+?\024\256\007?\341z\224>)\\\217=\303\365h?\n\327c?)\\\017>\315\314L=\205\353\321>\217\302\365>\n\327#=\232\231\031?\354Q\270=\037\205+?\205\353\321>\366(\034?\354Q8>\n\327#>)\\\217={\024.>\217\3025?33s?\315\314L>\244p=?R\270\236>R\270^?\303\365(?ff&?R\270^?\205\353Q?\205\353\321>\217\302\365>\270\036\005?\244p=?\037\205+?\327\243p?\024\256\007?\270\036E?{\024.>\270\036E?"
      }
    }
  }
}
node {
  name: "tensors/component_1"
  op: "Const"
  device: "/device:CPU:0"
  attr {
    key: "_output_shapes"
    value {
      list {
        shape {
          dim {
            size: 999
          }
          dim {
            size: 1
          }
        }
      }
    }
  }
  attr {
    key: "dtype"
    value {
      type: DT_FLOAT
    }
  }
  attr {
    key: "value"
    value {
      tensor {
        dtype: DT_FLOAT
        tensor_shape {
          dim {
            size: 999
          }
          dim {
            size: 1
          }
        }
        tensor_content: "\000\000\000\000\000\000\000\000\000\000\200?\000\000\200?\000\000\200?\000\000\000\000\000\000\000\000\000\000\200?\000\000\200?\000\000\200?\000\000\200?\000\000\000\000\000\000\000\000\000\000\200?\000\000\200?\000\000\000\000\000\000\000\000\000\000\200?\000\000\200?\000\000\000\000\000\000\000\000\000\000\000\000\000\000\000\000\000\000\000\000\000\000\000\000\000\000\000\000\000\000\000\000\000\000\000\000\000\000\000\000\000\000\000\000\000\000\000\000\000\000\000\000\000\000\000\000\000\000\000\000\000\000\000\000\000\000\000\000\000\000\000\000\000\000\000\000\000\000\000\000\000\000\000\000\000\000\000\000\000\000\000\000\000\000\000\000\000\000\200?\000\000\200?\000\000\200?\000\000\000\000\000\000\200?\000\000\200?\000\000\200?\000\000\200?\000\000\000\000\000\000\200?\000\000\200?\000\000\200?\000\000\000\000\000\000\200?\000\000\200?\000\000\000\000\000\000\000\000\000\000\000\000\000\000\000\000\000\000\000\000\000\000\000\000\000\000\000\000\000\000\000\000\000\000\000\000\000\000\000\000\000\000\000\000\000\000\000\000\000\000\000\000\000\000\000\000\000\000\000\000\000\000\000\000\000\000\000\000\000\000\000\000\000\000\000\000\000\000\000\000\000\000\000\000\000\000\000\000\000\000\200?\000\000\200?\000\000\200?\000\000\200?\000\000\000\000\000\000\000\000\000\000\200?\000\000\200?\000\000\000\000\000\000\200?\000\000\200?\000\000\000\000\000\000\000\000\000\000\200?\000\000\200?\000\000\000\000\000\000\000\000\000\000\000\000\000\000\000\000\000\000\000\000\000\000\000\000\000\000\000\000\000\000\000\000\000\000\000\000\000\000\000\000\000\000\000\000\000\000\000\000\000\000\000\000\000\000\200?\000\000\200?\000\000\200?\000\000\200?\000\000\000\000\000\000\000\000\000\000\000\000\000\000\200?\000\000\200?\000\000\200?\000\000\000\000\000\000\000\000\000\000\000\000\000\000\000\000\000\000\000\000\000\000\000\000\000\000\000\000\000\000\000\000\000\000\000\000\000\000\000\000\000\000\000\000\000\000\200?\000\000\200?\000\000\200?\000\000\000\000\000\000\000\000\000\000\000\000\000\000\000\000\000\000\000\000\000\000\000\000\000\000\000\000\000\000\000\000\000\000\000\000\000\000\000\000\000\000\000\000\000\000\000\000\000\000\200?\000\000\200?\000\000\200?\000\000\200?\000\000\000\000\000\000\200?\000\000\200?\000\000\200?\000\000\200?\000\000\000\000\000\000\200?\000\000\200?\000\000\200?\000\000\200?\000\000\000\000\000\000\000\000\000\000\200?\000\000\200?\000\000\200?\000\000\200?\000\000\200?\000\000\200?\000\000\200?\000\000\000\000\000\000\200?\000\000\200?\000\000\200?\000\000\000\000\000\000\000\000\000\000\200?\000\000\200?\000\000\200?\000\000\000\000\000\000\200?\000\000\200?\000\000\200?\000\000\000\000\000\000\000\000\000\000\000\000\000\000\000\000\000\000\000\000\000\000\000\000\000\000\000\000\000\000\000\000\000\000\200?\000\000\200?\000\000\000\000\000\000\000\000\000\000\200?\000\000\200?\000\000\200?\000\000\200?\000\000\200?\000\000\000\000\000\000\000\000\000\000\200?\000\000\200?\000\000\000\000\000\000\000\000\000\000\000\000\000\000\200?\000\000\000\000\000\000\200?\000\000\200?\000\000\200?\000\000\000\000\000\000\200?\000\000\200?\000\000\200?\000\000\200?\000\000\000\000\000\000\200?\000\000\200?\000\000\200?\000\000\000\000\000\000\000\000\000\000\000\000\000\000\000\000\000\000\200?\000\000\000\000\000\000\000\000\000\000\000\000\000\000\000\000\000\000\000\000\000\000\000\000\000\000\200?\000\000\200?\000\000\000\000\000\000\000\000\000\000\000\000\000\000\200?\000\000\200?\000\000\200?\000\000\200?\000\000\000\000\000\000\000\000\000\000\000\000\000\000\200?\000\000\200?\000\000\000\000\000\000\000\000\000\000\200?\000\000\200?\000\000\200?\000\000\200?\000\000\200?\000\000\200?\000\000\200?\000\000\200?\000\000\000\000\000\000\200?\000\000\200?\000\000\200?\000\000\200?\000\000\000\000\000\000\000\000\000\000\000\000\000\000\200?\000\000\200?\000\000\200?\000\000\200?\000\000\000\000\000\000\200?\000\000\200?\000\000\200?\000\000\200?\000\000\200?\000\000\000\000\000\000\200?\000\000\200?\000\000\200?\000\000\000\000\000\000\000\000\000\000\200?\000\000\000\000\000\000\000\000\000\000\000\000\000\000\200?\000\000\200?\000\000\200?\000\000\000\000\000\000\000\000\000\000\000\000\000\000\000\000\000\000\000\000\000\000\000\000\000\000\000\000\000\000\000\000\000\000\000\000\000\000\000\000\000\000\000\000\000\000\000\000\000\000\000\000\000\000\000\000\000\000\000\000\000\000\200?\000\000\200?\000\000\200?\000\000\200?\000\000\200?\000\000\200?\000\000\000\000\000\000\200?\000\000\200?\000\000\200?\000\000\200?\000\000\200?\000\000\200?\000\000\000\000\000\000\200?\000\000\200?\000\000\000\000\000\000\000\000\000\000\200?\000\000\200?\000\000\200?\000\000\200?\000\000\000\000\000\000\000\000\000\000\200?\000\000\200?\000\000\000\000\000\000\000\000\000\000\200?\000\000\200?\000\000\200?\000\000\000\000\000\000\000\000\000\000\000\000\000\000\000\000\000\000\000\000\000\000\000\000\000\000\000\000\000\000\000\000\000\000\000\000\000\000\000\000\000\000\000\000\000\000\000\000\000\000\000\000\000\000\200?\000\000\200?\000\000\200?\000\000\200?\000\000\000\000\000\000\200?\000\000\200?\000\000\200?\000\000\000\000\000\000\000\000\000\000\000\000\000\000\000\000\000\000\000\000\000\000\000\000\000\000\000\000\000\000\000\000\000\000\000\000\000\000\000\000\000\000\000\000\000\000\000\000\000\000\000\000\000\000\000\000\000\000\000\000\000\000\000\000\000\000\000\000\000\000\000\000\000\000\000\000\000\000\000\000\000\000\000\000\000\000\000\000\000\000\000\000\000\000\000\000\000\000\000\000\000\000\000\000\000\000\000\000\000\000\000\000\000\000\000\000\000\000\000\000\000\000\000\000\000\000\000\000\000\000\000\000\000\000\000\000\000\000\000\000\000\000\000\000\000\000\000\000\000\000\000\000\000\000\000\000\000\000\000\000\000\000\000\000\000\000\000\000\000\000\200?\000\000\200?\000\000\200?\000\000\200?\000\000\200?\000\000\200?\000\000\200?\000\000\200?\000\000\200?\000\000\200?\000\000\200?\000\000\200?\000\000\000\000\000\000\000\000\000\000\000\000\000\000\000\000\000\000\000\000\000\000\000\000\000\000\000\000\000\000\000\000\000\000\000\000\000\000\000\000\000\000\000\000\000\000\000\000\000\000\000\000\000\000\000\000\000\000\000\000\000\000\000\000\000\000\000\000\000\000\000\000\000\000\000\000\000\000\000\000\000\000\000\000\000\000\000\000\000\000\000\000\000\000\200?\000\000\200?\000\000\000\000\000\000\000\000\000\000\000\000\000\000\200?\000\000\000\000\000\000\000\000\000\000\000\000\000\000\000\000\000\000\000\000\000\000\200?\000\000\200?\000\000\200?\000\000\200?\000\000\200?\000\000\200?\000\000\200?\000\000\200?\000\000\200?\000\000\200?\000\000\200?\000\000\200?\000\000\200?\000\000\200?\000\000\000\000\000\000\000\000\000\000\000\000\000\000\200?\000\000\200?\000\000\200?\000\000\200?\000\000\200?\000\000\200?\000\000\200?\000\000\200?\000\000\200?\000\000\200?\000\000\200?\000\000\200?\000\000\200?\000\000\200?\000\000\200?\000\000\200?\000\000\200?\000\000\200?\000\000\200?\000\000\200?\000\000\200?\000\000\200?\000\000\200?\000\000\200?\000\000\200?\000\000\200?\000\000\200?\000\000\200?\000\000\200?\000\000\000\000\000\000\200?\000\000\200?\000\000\200?\000\000\200?\000\000\200?\000\000\000\000\000\000\000\000\000\000\000\000\000\000\000\000\000\000\000\000\000\000\000\000\000\000\000\000\000\000\000\000\000\000\000\000\000\000\000\000\000\000\000\000\000\000\000\000\000\000\000\000\000\000\000\000\000\000\000\000\000\000\000\000\000\000\000\000\000\000\000\000\000\000\000\000\000\000\000\000\000\000\000\000\000\000\000\000\000\000\000\000\000\000\000\000\000\000\000\000\000\000\000\000\000\000\000\000\000\000\000\000\000\000\000\000\000\000\000\000\000\000\000\000\000\000\000\000\000\000\000\000\000\000\000\000\000\000\000\000\000\000\000\000\000\000\000\000\000\000\000\000\000\000\000\000\000\000\000\000\000\000\000\000\000\000\000\000\000\000\000\000\000\000\000\000\000\000\000\000\000\000\000\000\000\000\000\000\000\000\000\000\000\000\000\000\000\000\000\000\000\000\000\000\000\000\000\000\000\000\000\000\000\000\000\000\000\000\000\000\000\000\000\000\000\000\000\000\000\000\000\000\000\000\000\000\000\000\000\000\000\000\000\000\000\000\000\000\000\000\000\000\000\000\200?\000\000\200?\000\000\000\000\000\000\000\000\000\000\000\000\000\000\200?\000\000\200?\000\000\000\000\000\000\000\000\000\000\000\000\000\000\000\000\000\000\200?\000\000\000\000\000\000\000\000\000\000\000\000\000\000\000\000\000\000\000\000\000\000\000\000\000\000\000\000\000\000\000\000\000\000\200?\000\000\000\000\000\000\000\000\000\000\000\000\000\000\000\000\000\000\000\000\000\000\200?\000\000\000\000\000\000\200?\000\000\200?\000\000\000\000\000\000\000\000\000\000\000\000\000\000\000\000\000\000\200?\000\000\000\000\000\000\200?\000\000\000\000\000\000\000\000\000\000\000\000\000\000\000\000\000\000\000\000\000\000\000\000\000\000\000\000\000\000\000\000\000\000\000\000\000\000\000\000\000\000\000\000\000\000\200?\000\000\000\000\000\000\000\000\000\000\000\000\000\000\200?\000\000\200?\000\000\200?\000\000\000\000\000\000\000\000\000\000\200?\000\000\000\000\000\000\000\000\000\000\000\000\000\000\200?\000\000\000\000\000\000\200?\000\000\000\000\000\000\000\000\000\000\000\000\000\000\000\000\000\000\000\000\000\000\000\000\000\000\000\000\000\000\000\000\000\000\200?\000\000\000\000\000\000\000\000\000\000\000\000\000\000\000\000\000\000\000\000\000\000\000\000\000\000\000\000\000\000\000\000\000\000\200?\000\000\000\000\000\000\000\000\000\000\000\000\000\000\200?\000\000\000\000\000\000\000\000\000\000\000\000\000\000\000\000\000\000\000\000\000\000\000\000\000\000\000\000\000\000\200?\000\000\000\000\000\000\000\000\000\000\000\000\000\000\000\000\000\000\000\000\000\000\000\000\000\000\000\000\000\000\000\000\000\000\000\000\000\000\000\000\000\000\200?\000\000\000\000\000\000\000\000\000\000\000\000\000\000\200?\000\000\000\000\000\000\000\000\000\000\200?\000\000\000\000\000\000\200?\000\000\000\000\000\000\000\000\000\000\200?\000\000\000\000\000\000\000\000\000\000\000\000\000\000\200?\000\000\000\000\000\000\200?\000\000\000\000\000\000\000\000\000\000\200?\000\000\000\000\000\000\000\000\000\000\000\000\000\000\000\000\000\000\000\000\000\000\200?\000\000\000\000\000\000\000\000\000\000\000\000\000\000\000\000\000\000\000\000\000\000\200?\000\000\000\000\000\000\000\000\000\000\000\000\000\000\000\000\000\000\000\000\000\000\200?\000\000\200?\000\000\200?\000\000\200?\000\000\200?\000\000\200?\000\000\200?\000\000\000\000\000\000\000\000\000\000\000\000\000\000\200?\000\000\000\000\000\000\000\000\000\000\200?\000\000\000\000\000\000\200?\000\000\000\000\000\000\000\000\000\000\000\000\000\000\000\000\000\000\000\000\000\000\000\000\000\000\000\000\000\000\000\000\000\000\000\000\000\000\000\000\000\000\000\000\000\000\000\000\000\000\000\000\000\000\200?\000\000\000\000\000\000\000\000\000\000\000\000\000\000\000\000\000\000\000\000\000\000\000\000\000\000\000\000\000\000\200?\000\000\200?\000\000\000\000\000\000\000\000\000\000\000\000\000\000\200?\000\000\200?\000\000\200?\000\000\000\000\000\000\000\000\000\000\000\000\000\000\200?\000\000\000\000\000\000\000\000\000\000\000\000\000\000\000\000\000\000\000\000\000\000\000\000\000\000\200?\000\000\000\000\000\000\000\000\000\000\000\000\000\000\200?\000\000\000\000\000\000\000\000\000\000\000\000\000\000\000\000\000\000\200?\000\000\000\000\000\000\000\000\000\000\000\000\000\000\000\000\000\000\000\000\000\000\200?\000\000\000\000\000\000\000\000\000\000\200?\000\000\000\000\000\000\000\000\000\000\000\000\000\000\000\000\000\000\200?\000\000\000\000\000\000\000\000\000\000\200?\000\000\000\000\000\000\200?\000\000\000\000\000\000\000\000\000\000\000\000\000\000\000\000\000\000\000\000\000\000\000\000\000\000\000\000\000\000\000\000\000\000\000\000\000\000\000\000\000\000\000\000\000\000\200?\000\000\000\000\000\000\000\000\000\000\200?\000\000\000\000\000\000\000\000\000\000\000\000\000\000\000\000\000\000\000\000\000\000\000\000\000\000\200?\000\000\200?\000\000\200?\000\000\200?\000\000\200?\000\000\000\000\000\000\000\000\000\000\000\000\000\000\000\000\000\000\000\000\000\000\000\000\000\000\000\000\000\000\200?\000\000\200?\000\000\000\000\000\000\200?\000\000\000\000\000\000\000\000\000\000\000\000\000\000\000\000\000\000\000\000\000\000\200?\000\000\000\000\000\000\000\000\000\000\000\000\000\000\000\000\000\000\000\000\000\000\200?\000\000\000\000\000\000\000\000\000\000\000\000\000\000\000\000\000\000\000\000\000\000\000\000\000\000\000\000\000\000\000\000\000\000\200?\000\000\200?\000\000\000\000\000\000\200?\000\000\000\000\000\000\000\000\000\000\000\000\000\000\200?\000\000\200?\000\000\000\000\000\000\200?\000\000\000\000\000\000\200?\000\000\000\000\000\000\000\000\000\000\000\000\000\000\000\000\000\000\000\000\000\000\200?\000\000\000\000\000\000\200?\000\000\200?\000\000\000\000\000\000\000\000\000\000\200?\000\000\200?\000\000\200?\000\000\000\000\000\000\000\000\000\000\000\000\000\000\000\000\000\000\000\000\000\000\000\000\000\000\000\000\000\000\000\000\000\000\000\000\000\000\000\000\000\000\000\000\000\000\000\000\000\000\000\000\000\000\000\000\000\000\200?\000\000\000\000\000\000\200?\000\000\000\000\000\000\000\000\000\000\000\000\000\000\200?\000\000\000\000\000\000\000\000\000\000\000\000\000\000\200?\000\000\000\000\000\000\000\000\000\000\200?\000\000\000\000\000\000\200?\000\000\000\000\000\000\000\000\000\000\000\000\000\000\200?\000\000\000\000\000\000\000\000\000\000\000\000\000\000\200?\000\000\000\000\000\000\000\000\000\000\000\000\000\000\200?\000\000\000\000\000\000\000\000\000\000\000\000\000\000\000\000\000\000\000\000\000\000\200?\000\000\200?\000\000\200?\000\000\000\000\000\000\000\000\000\000\000\000\000\000\000\000\000\000\000\000\000\000\000\000\000\000\200?\000\000\000\000\000\000\000\000\000\000\000\000\000\000\000\000\000\000\000\000\000\000\000\000\000\000\200?\000\000\000\000\000\000\000\000\000\000\000\000\000\000\000\000\000\000\000\000\000\000\200?\000\000\000\000\000\000\000\000\000\000\000\000\000\000\200?\000\000\200?\000\000\000\000\000\000\000\000\000\000\200?\000\000\200?\000\000\200?\000\000\000\000\000\000\000\000\000\000\000\000\000\000\000\000\000\000\000\000\000\000\000\000\000\000\000\000\000\000\000\000\000\000\000\000\000\000\000\000\000\000\000\000\000\000\000\000\000\000\000\000\000\000\000\000\000\000\200?\000\000\000\000\000\000\000\000\000\000\000\000\000\000\000\000\000\000\000\000\000\000\000\000\000\000\000\000\000\000\000\000\000\000\200?\000\000\200?\000\000\000\000\000\000\000\000\000\000\000\000\000\000\000\000\000\000\200?\000\000\200?\000\000\200?\000\000\200?\000\000\000\000\000\000\000\000\000\000\000\000\000\000\000\000\000\000\000\000\000\000\000\000\000\000\000\000\000\000\200?\000\000\000\000\000\000\200?\000\000\000\000\000\000\000\000\000\000\000\000\000\000\000\000\000\000\000\000\000\000\000\000\000\000\200?\000\000\200?\000\000\000\000\000\000\200?\000\000\000\000"
      }
    }
  }
}
node {
  name: "count"
  op: "Const"
  device: "/device:CPU:0"
  attr {
    key: "_output_shapes"
    value {
      list {
        shape {
        }
      }
    }
  }
  attr {
    key: "dtype"
    value {
      type: DT_INT64
    }
  }
  attr {
    key: "value"
    value {
      tensor {
        dtype: DT_INT64
        tensor_shape {
        }
        int64_val: -1
      }
    }
  }
}
node {
  name: "buffer_size"
  op: "Const"
  device: "/device:CPU:0"
  attr {
    key: "_output_shapes"
    value {
      list {
        shape {
        }
      }
    }
  }
  attr {
    key: "dtype"
    value {
      type: DT_INT64
    }
  }
  attr {
    key: "value"
    value {
      tensor {
        dtype: DT_INT64
        tensor_shape {
        }
        int64_val: 999
      }
    }
  }
}
node {
  name: "seed"
  op: "Const"
  device: "/device:CPU:0"
  attr {
    key: "_output_shapes"
    value {
      list {
        shape {
        }
      }
    }
  }
  attr {
    key: "dtype"
    value {
      type: DT_INT64
    }
  }
  attr {
    key: "value"
    value {
      tensor {
        dtype: DT_INT64
        tensor_shape {
        }
        int64_val: 0
      }
    }
  }
}
node {
  name: "seed2"
  op: "Const"
  device: "/device:CPU:0"
  attr {
    key: "_output_shapes"
    value {
      list {
        shape {
        }
      }
    }
  }
  attr {
    key: "dtype"
    value {
      type: DT_INT64
    }
  }
  attr {
    key: "value"
    value {
      tensor {
        dtype: DT_INT64
        tensor_shape {
        }
        int64_val: 0
      }
    }
  }
}
node {
  name: "batch_size"
  op: "Const"
  device: "/device:CPU:0"
  attr {
    key: "_output_shapes"
    value {
      list {
        shape {
        }
      }
    }
  }
  attr {
    key: "dtype"
    value {
      type: DT_INT64
    }
  }
  attr {
    key: "value"
    value {
      tensor {
        dtype: DT_INT64
        tensor_shape {
        }
        int64_val: 1
      }
    }
  }
}
node {
  name: "OneShotIterator"
  op: "OneShotIterator"
  device: "/device:CPU:0"
  attr {
    key: "_output_shapes"
    value {
      list {
        shape {
        }
      }
    }
  }
  attr {
    key: "container"
    value {
      s: ""
    }
  }
  attr {
    key: "dataset_factory"
    value {
      func {
        name: "_make_dataset_97524462"
      }
    }
  }
  attr {
    key: "output_shapes"
    value {
      list {
        shape {
          dim {
            size: -1
          }
          dim {
            size: 3
          }
        }
        shape {
          dim {
            size: -1
          }
          dim {
            size: 1
          }
        }
      }
    }
  }
  attr {
    key: "output_types"
    value {
      list {
        type: DT_FLOAT
        type: DT_FLOAT
      }
    }
  }
  attr {
    key: "shared_name"
    value {
      s: ""
    }
  }
}
node {
  name: "IteratorToStringHandle"
  op: "IteratorToStringHandle"
  input: "OneShotIterator"
  device: "/device:CPU:0"
  attr {
    key: "_output_shapes"
    value {
      list {
        shape {
        }
      }
    }
  }
}
node {
  name: "IteratorGetNext"
  op: "IteratorGetNext"
  input: "OneShotIterator"
  device: "/device:CPU:0"
  attr {
    key: "_output_shapes"
    value {
      list {
        shape {
          dim {
            size: -1
          }
          dim {
            size: 3
          }
        }
        shape {
          dim {
            size: -1
          }
          dim {
            size: 1
          }
        }
      }
    }
  }
  attr {
    key: "output_shapes"
    value {
      list {
        shape {
          dim {
            size: -1
          }
          dim {
            size: 3
          }
        }
        shape {
          dim {
            size: -1
          }
          dim {
            size: 1
          }
        }
      }
    }
  }
  attr {
    key: "output_types"
    value {
      list {
        type: DT_FLOAT
        type: DT_FLOAT
      }
    }
  }
}
node {
  name: "dense/kernel/Initializer/random_uniform/shape"
  op: "Const"
  attr {
    key: "_class"
    value {
      list {
        s: "loc:@dense/kernel"
      }
    }
  }
  attr {
    key: "_output_shapes"
    value {
      list {
        shape {
          dim {
            size: 2
          }
        }
      }
    }
  }
  attr {
    key: "dtype"
    value {
      type: DT_INT32
    }
  }
  attr {
    key: "value"
    value {
      tensor {
        dtype: DT_INT32
        tensor_shape {
          dim {
            size: 2
          }
        }
        tensor_content: "\003\000\000\000\003\000\000\000"
      }
    }
  }
}
node {
  name: "dense/kernel/Initializer/random_uniform/min"
  op: "Const"
  attr {
    key: "_class"
    value {
      list {
        s: "loc:@dense/kernel"
      }
    }
  }
  attr {
    key: "_output_shapes"
    value {
      list {
        shape {
        }
      }
    }
  }
  attr {
    key: "dtype"
    value {
      type: DT_FLOAT
    }
  }
  attr {
    key: "value"
    value {
      tensor {
        dtype: DT_FLOAT
        tensor_shape {
        }
        float_val: -1.0
      }
    }
  }
}
node {
  name: "dense/kernel/Initializer/random_uniform/max"
  op: "Const"
  attr {
    key: "_class"
    value {
      list {
        s: "loc:@dense/kernel"
      }
    }
  }
  attr {
    key: "_output_shapes"
    value {
      list {
        shape {
        }
      }
    }
  }
  attr {
    key: "dtype"
    value {
      type: DT_FLOAT
    }
  }
  attr {
    key: "value"
    value {
      tensor {
        dtype: DT_FLOAT
        tensor_shape {
        }
        float_val: 1.0
      }
    }
  }
}
node {
  name: "dense/kernel/Initializer/random_uniform/RandomUniform"
  op: "RandomUniform"
  input: "dense/kernel/Initializer/random_uniform/shape"
  attr {
    key: "T"
    value {
      type: DT_INT32
    }
  }
  attr {
    key: "_class"
    value {
      list {
        s: "loc:@dense/kernel"
      }
    }
  }
  attr {
    key: "_output_shapes"
    value {
      list {
        shape {
          dim {
            size: 3
          }
          dim {
            size: 3
          }
        }
      }
    }
  }
  attr {
    key: "dtype"
    value {
      type: DT_FLOAT
    }
  }
  attr {
    key: "seed"
    value {
      i: 0
    }
  }
  attr {
    key: "seed2"
    value {
      i: 0
    }
  }
}
node {
  name: "dense/kernel/Initializer/random_uniform/sub"
  op: "Sub"
  input: "dense/kernel/Initializer/random_uniform/max"
  input: "dense/kernel/Initializer/random_uniform/min"
  attr {
    key: "T"
    value {
      type: DT_FLOAT
    }
  }
  attr {
    key: "_class"
    value {
      list {
        s: "loc:@dense/kernel"
      }
    }
  }
  attr {
    key: "_output_shapes"
    value {
      list {
        shape {
        }
      }
    }
  }
}
node {
  name: "dense/kernel/Initializer/random_uniform/mul"
  op: "Mul"
  input: "dense/kernel/Initializer/random_uniform/RandomUniform"
  input: "dense/kernel/Initializer/random_uniform/sub"
  attr {
    key: "T"
    value {
      type: DT_FLOAT
    }
  }
  attr {
    key: "_class"
    value {
      list {
        s: "loc:@dense/kernel"
      }
    }
  }
  attr {
    key: "_output_shapes"
    value {
      list {
        shape {
          dim {
            size: 3
          }
          dim {
            size: 3
          }
        }
      }
    }
  }
}
node {
  name: "dense/kernel/Initializer/random_uniform"
  op: "Add"
  input: "dense/kernel/Initializer/random_uniform/mul"
  input: "dense/kernel/Initializer/random_uniform/min"
  attr {
    key: "T"
    value {
      type: DT_FLOAT
    }
  }
  attr {
    key: "_class"
    value {
      list {
        s: "loc:@dense/kernel"
      }
    }
  }
  attr {
    key: "_output_shapes"
    value {
      list {
        shape {
          dim {
            size: 3
          }
          dim {
            size: 3
          }
        }
      }
    }
  }
}
node {
  name: "dense/kernel"
  op: "VariableV2"
  attr {
    key: "_class"
    value {
      list {
        s: "loc:@dense/kernel"
      }
    }
  }
  attr {
    key: "_output_shapes"
    value {
      list {
        shape {
          dim {
            size: 3
          }
          dim {
            size: 3
          }
        }
      }
    }
  }
  attr {
    key: "container"
    value {
      s: ""
    }
  }
  attr {
    key: "dtype"
    value {
      type: DT_FLOAT
    }
  }
  attr {
    key: "shape"
    value {
      shape {
        dim {
          size: 3
        }
        dim {
          size: 3
        }
      }
    }
  }
  attr {
    key: "shared_name"
    value {
      s: ""
    }
  }
}
node {
  name: "dense/kernel/Assign"
  op: "Assign"
  input: "dense/kernel"
  input: "dense/kernel/Initializer/random_uniform"
  attr {
    key: "T"
    value {
      type: DT_FLOAT
    }
  }
  attr {
    key: "_class"
    value {
      list {
        s: "loc:@dense/kernel"
      }
    }
  }
  attr {
    key: "_output_shapes"
    value {
      list {
        shape {
          dim {
            size: 3
          }
          dim {
            size: 3
          }
        }
      }
    }
  }
  attr {
    key: "use_locking"
    value {
      b: true
    }
  }
  attr {
    key: "validate_shape"
    value {
      b: true
    }
  }
}
node {
  name: "dense/kernel/read"
  op: "Identity"
  input: "dense/kernel"
  attr {
    key: "T"
    value {
      type: DT_FLOAT
    }
  }
  attr {
    key: "_class"
    value {
      list {
        s: "loc:@dense/kernel"
      }
    }
  }
  attr {
    key: "_output_shapes"
    value {
      list {
        shape {
          dim {
            size: 3
          }
          dim {
            size: 3
          }
        }
      }
    }
  }
}
node {
  name: "dense/bias/Initializer/zeros/shape_as_tensor"
  op: "Const"
  attr {
    key: "_class"
    value {
      list {
        s: "loc:@dense/bias"
      }
    }
  }
  attr {
    key: "_output_shapes"
    value {
      list {
        shape {
          dim {
            size: 1
          }
        }
      }
    }
  }
  attr {
    key: "dtype"
    value {
      type: DT_INT32
    }
  }
  attr {
    key: "value"
    value {
      tensor {
        dtype: DT_INT32
        tensor_shape {
          dim {
            size: 1
          }
        }
        int_val: 3
      }
    }
  }
}
node {
  name: "dense/bias/Initializer/zeros/Const"
  op: "Const"
  attr {
    key: "_class"
    value {
      list {
        s: "loc:@dense/bias"
      }
    }
  }
  attr {
    key: "_output_shapes"
    value {
      list {
        shape {
        }
      }
    }
  }
  attr {
    key: "dtype"
    value {
      type: DT_FLOAT
    }
  }
  attr {
    key: "value"
    value {
      tensor {
        dtype: DT_FLOAT
        tensor_shape {
        }
        float_val: 0.0
      }
    }
  }
}
node {
  name: "dense/bias/Initializer/zeros"
  op: "Fill"
  input: "dense/bias/Initializer/zeros/shape_as_tensor"
  input: "dense/bias/Initializer/zeros/Const"
  attr {
    key: "T"
    value {
      type: DT_FLOAT
    }
  }
  attr {
    key: "_class"
    value {
      list {
        s: "loc:@dense/bias"
      }
    }
  }
  attr {
    key: "_output_shapes"
    value {
      list {
        shape {
          dim {
            size: 3
          }
        }
      }
    }
  }
  attr {
    key: "index_type"
    value {
      type: DT_INT32
    }
  }
}
node {
  name: "dense/bias"
  op: "VariableV2"
  attr {
    key: "_class"
    value {
      list {
        s: "loc:@dense/bias"
      }
    }
  }
  attr {
    key: "_output_shapes"
    value {
      list {
        shape {
          dim {
            size: 3
          }
        }
      }
    }
  }
  attr {
    key: "container"
    value {
      s: ""
    }
  }
  attr {
    key: "dtype"
    value {
      type: DT_FLOAT
    }
  }
  attr {
    key: "shape"
    value {
      shape {
        dim {
          size: 3
        }
      }
    }
  }
  attr {
    key: "shared_name"
    value {
      s: ""
    }
  }
}
node {
  name: "dense/bias/Assign"
  op: "Assign"
  input: "dense/bias"
  input: "dense/bias/Initializer/zeros"
  attr {
    key: "T"
    value {
      type: DT_FLOAT
    }
  }
  attr {
    key: "_class"
    value {
      list {
        s: "loc:@dense/bias"
      }
    }
  }
  attr {
    key: "_output_shapes"
    value {
      list {
        shape {
          dim {
            size: 3
          }
        }
      }
    }
  }
  attr {
    key: "use_locking"
    value {
      b: true
    }
  }
  attr {
    key: "validate_shape"
    value {
      b: true
    }
  }
}
node {
  name: "dense/bias/read"
  op: "Identity"
  input: "dense/bias"
  attr {
    key: "T"
    value {
      type: DT_FLOAT
    }
  }
  attr {
    key: "_class"
    value {
      list {
        s: "loc:@dense/bias"
      }
    }
  }
  attr {
    key: "_output_shapes"
    value {
      list {
        shape {
          dim {
            size: 3
          }
        }
      }
    }
  }
}
node {
  name: "dense/MatMul"
  op: "MatMul"
  input: "IteratorGetNext"
  input: "dense/kernel/read"
  attr {
    key: "T"
    value {
      type: DT_FLOAT
    }
  }
  attr {
    key: "_output_shapes"
    value {
      list {
        shape {
          dim {
            size: -1
          }
          dim {
            size: 3
          }
        }
      }
    }
  }
  attr {
    key: "transpose_a"
    value {
      b: false
    }
  }
  attr {
    key: "transpose_b"
    value {
      b: false
    }
  }
}
node {
  name: "dense/BiasAdd"
  op: "BiasAdd"
  input: "dense/MatMul"
  input: "dense/bias/read"
  attr {
    key: "T"
    value {
      type: DT_FLOAT
    }
  }
  attr {
    key: "_output_shapes"
    value {
      list {
        shape {
          dim {
            size: -1
          }
          dim {
            size: 3
          }
        }
      }
    }
  }
  attr {
    key: "data_format"
    value {
      s: "NHWC"
    }
  }
}
node {
  name: "dense/Relu"
  op: "Relu"
  input: "dense/BiasAdd"
  attr {
    key: "T"
    value {
      type: DT_FLOAT
    }
  }
  attr {
    key: "_output_shapes"
    value {
      list {
        shape {
          dim {
            size: -1
          }
          dim {
            size: 3
          }
        }
      }
    }
  }
}
node {
  name: "dense_1/kernel/Initializer/random_uniform/shape"
  op: "Const"
  attr {
    key: "_class"
    value {
      list {
        s: "loc:@dense_1/kernel"
      }
    }
  }
  attr {
    key: "_output_shapes"
    value {
      list {
        shape {
          dim {
            size: 2
          }
        }
      }
    }
  }
  attr {
    key: "dtype"
    value {
      type: DT_INT32
    }
  }
  attr {
    key: "value"
    value {
      tensor {
        dtype: DT_INT32
        tensor_shape {
          dim {
            size: 2
          }
        }
        tensor_content: "\003\000\000\000\004\000\000\000"
      }
    }
  }
}
node {
  name: "dense_1/kernel/Initializer/random_uniform/min"
  op: "Const"
  attr {
    key: "_class"
    value {
      list {
        s: "loc:@dense_1/kernel"
      }
    }
  }
  attr {
    key: "_output_shapes"
    value {
      list {
        shape {
        }
      }
    }
  }
  attr {
    key: "dtype"
    value {
      type: DT_FLOAT
    }
  }
  attr {
    key: "value"
    value {
      tensor {
        dtype: DT_FLOAT
        tensor_shape {
        }
        float_val: -0.9258201122283936
      }
    }
  }
}
node {
  name: "dense_1/kernel/Initializer/random_uniform/max"
  op: "Const"
  attr {
    key: "_class"
    value {
      list {
        s: "loc:@dense_1/kernel"
      }
    }
  }
  attr {
    key: "_output_shapes"
    value {
      list {
        shape {
        }
      }
    }
  }
  attr {
    key: "dtype"
    value {
      type: DT_FLOAT
    }
  }
  attr {
    key: "value"
    value {
      tensor {
        dtype: DT_FLOAT
        tensor_shape {
        }
        float_val: 0.9258201122283936
      }
    }
  }
}
node {
  name: "dense_1/kernel/Initializer/random_uniform/RandomUniform"
  op: "RandomUniform"
  input: "dense_1/kernel/Initializer/random_uniform/shape"
  attr {
    key: "T"
    value {
      type: DT_INT32
    }
  }
  attr {
    key: "_class"
    value {
      list {
        s: "loc:@dense_1/kernel"
      }
    }
  }
  attr {
    key: "_output_shapes"
    value {
      list {
        shape {
          dim {
            size: 3
          }
          dim {
            size: 4
          }
        }
      }
    }
  }
  attr {
    key: "dtype"
    value {
      type: DT_FLOAT
    }
  }
  attr {
    key: "seed"
    value {
      i: 0
    }
  }
  attr {
    key: "seed2"
    value {
      i: 0
    }
  }
}
node {
  name: "dense_1/kernel/Initializer/random_uniform/sub"
  op: "Sub"
  input: "dense_1/kernel/Initializer/random_uniform/max"
  input: "dense_1/kernel/Initializer/random_uniform/min"
  attr {
    key: "T"
    value {
      type: DT_FLOAT
    }
  }
  attr {
    key: "_class"
    value {
      list {
        s: "loc:@dense_1/kernel"
      }
    }
  }
  attr {
    key: "_output_shapes"
    value {
      list {
        shape {
        }
      }
    }
  }
}
node {
  name: "dense_1/kernel/Initializer/random_uniform/mul"
  op: "Mul"
  input: "dense_1/kernel/Initializer/random_uniform/RandomUniform"
  input: "dense_1/kernel/Initializer/random_uniform/sub"
  attr {
    key: "T"
    value {
      type: DT_FLOAT
    }
  }
  attr {
    key: "_class"
    value {
      list {
        s: "loc:@dense_1/kernel"
      }
    }
  }
  attr {
    key: "_output_shapes"
    value {
      list {
        shape {
          dim {
            size: 3
          }
          dim {
            size: 4
          }
        }
      }
    }
  }
}
node {
  name: "dense_1/kernel/Initializer/random_uniform"
  op: "Add"
  input: "dense_1/kernel/Initializer/random_uniform/mul"
  input: "dense_1/kernel/Initializer/random_uniform/min"
  attr {
    key: "T"
    value {
      type: DT_FLOAT
    }
  }
  attr {
    key: "_class"
    value {
      list {
        s: "loc:@dense_1/kernel"
      }
    }
  }
  attr {
    key: "_output_shapes"
    value {
      list {
        shape {
          dim {
            size: 3
          }
          dim {
            size: 4
          }
        }
      }
    }
  }
}
node {
  name: "dense_1/kernel"
  op: "VariableV2"
  attr {
    key: "_class"
    value {
      list {
        s: "loc:@dense_1/kernel"
      }
    }
  }
  attr {
    key: "_output_shapes"
    value {
      list {
        shape {
          dim {
            size: 3
          }
          dim {
            size: 4
          }
        }
      }
    }
  }
  attr {
    key: "container"
    value {
      s: ""
    }
  }
  attr {
    key: "dtype"
    value {
      type: DT_FLOAT
    }
  }
  attr {
    key: "shape"
    value {
      shape {
        dim {
          size: 3
        }
        dim {
          size: 4
        }
      }
    }
  }
  attr {
    key: "shared_name"
    value {
      s: ""
    }
  }
}
node {
  name: "dense_1/kernel/Assign"
  op: "Assign"
  input: "dense_1/kernel"
  input: "dense_1/kernel/Initializer/random_uniform"
  attr {
    key: "T"
    value {
      type: DT_FLOAT
    }
  }
  attr {
    key: "_class"
    value {
      list {
        s: "loc:@dense_1/kernel"
      }
    }
  }
  attr {
    key: "_output_shapes"
    value {
      list {
        shape {
          dim {
            size: 3
          }
          dim {
            size: 4
          }
        }
      }
    }
  }
  attr {
    key: "use_locking"
    value {
      b: true
    }
  }
  attr {
    key: "validate_shape"
    value {
      b: true
    }
  }
}
node {
  name: "dense_1/kernel/read"
  op: "Identity"
  input: "dense_1/kernel"
  attr {
    key: "T"
    value {
      type: DT_FLOAT
    }
  }
  attr {
    key: "_class"
    value {
      list {
        s: "loc:@dense_1/kernel"
      }
    }
  }
  attr {
    key: "_output_shapes"
    value {
      list {
        shape {
          dim {
            size: 3
          }
          dim {
            size: 4
          }
        }
      }
    }
  }
}
node {
  name: "dense_1/bias/Initializer/zeros/shape_as_tensor"
  op: "Const"
  attr {
    key: "_class"
    value {
      list {
        s: "loc:@dense_1/bias"
      }
    }
  }
  attr {
    key: "_output_shapes"
    value {
      list {
        shape {
          dim {
            size: 1
          }
        }
      }
    }
  }
  attr {
    key: "dtype"
    value {
      type: DT_INT32
    }
  }
  attr {
    key: "value"
    value {
      tensor {
        dtype: DT_INT32
        tensor_shape {
          dim {
            size: 1
          }
        }
        int_val: 4
      }
    }
  }
}
node {
  name: "dense_1/bias/Initializer/zeros/Const"
  op: "Const"
  attr {
    key: "_class"
    value {
      list {
        s: "loc:@dense_1/bias"
      }
    }
  }
  attr {
    key: "_output_shapes"
    value {
      list {
        shape {
        }
      }
    }
  }
  attr {
    key: "dtype"
    value {
      type: DT_FLOAT
    }
  }
  attr {
    key: "value"
    value {
      tensor {
        dtype: DT_FLOAT
        tensor_shape {
        }
        float_val: 0.0
      }
    }
  }
}
node {
  name: "dense_1/bias/Initializer/zeros"
  op: "Fill"
  input: "dense_1/bias/Initializer/zeros/shape_as_tensor"
  input: "dense_1/bias/Initializer/zeros/Const"
  attr {
    key: "T"
    value {
      type: DT_FLOAT
    }
  }
  attr {
    key: "_class"
    value {
      list {
        s: "loc:@dense_1/bias"
      }
    }
  }
  attr {
    key: "_output_shapes"
    value {
      list {
        shape {
          dim {
            size: 4
          }
        }
      }
    }
  }
  attr {
    key: "index_type"
    value {
      type: DT_INT32
    }
  }
}
node {
  name: "dense_1/bias"
  op: "VariableV2"
  attr {
    key: "_class"
    value {
      list {
        s: "loc:@dense_1/bias"
      }
    }
  }
  attr {
    key: "_output_shapes"
    value {
      list {
        shape {
          dim {
            size: 4
          }
        }
      }
    }
  }
  attr {
    key: "container"
    value {
      s: ""
    }
  }
  attr {
    key: "dtype"
    value {
      type: DT_FLOAT
    }
  }
  attr {
    key: "shape"
    value {
      shape {
        dim {
          size: 4
        }
      }
    }
  }
  attr {
    key: "shared_name"
    value {
      s: ""
    }
  }
}
node {
  name: "dense_1/bias/Assign"
  op: "Assign"
  input: "dense_1/bias"
  input: "dense_1/bias/Initializer/zeros"
  attr {
    key: "T"
    value {
      type: DT_FLOAT
    }
  }
  attr {
    key: "_class"
    value {
      list {
        s: "loc:@dense_1/bias"
      }
    }
  }
  attr {
    key: "_output_shapes"
    value {
      list {
        shape {
          dim {
            size: 4
          }
        }
      }
    }
  }
  attr {
    key: "use_locking"
    value {
      b: true
    }
  }
  attr {
    key: "validate_shape"
    value {
      b: true
    }
  }
}
node {
  name: "dense_1/bias/read"
  op: "Identity"
  input: "dense_1/bias"
  attr {
    key: "T"
    value {
      type: DT_FLOAT
    }
  }
  attr {
    key: "_class"
    value {
      list {
        s: "loc:@dense_1/bias"
      }
    }
  }
  attr {
    key: "_output_shapes"
    value {
      list {
        shape {
          dim {
            size: 4
          }
        }
      }
    }
  }
}
node {
  name: "dense_1/MatMul"
  op: "MatMul"
  input: "dense/Relu"
  input: "dense_1/kernel/read"
  attr {
    key: "T"
    value {
      type: DT_FLOAT
    }
  }
  attr {
    key: "_output_shapes"
    value {
      list {
        shape {
          dim {
            size: -1
          }
          dim {
            size: 4
          }
        }
      }
    }
  }
  attr {
    key: "transpose_a"
    value {
      b: false
    }
  }
  attr {
    key: "transpose_b"
    value {
      b: false
    }
  }
}
node {
  name: "dense_1/BiasAdd"
  op: "BiasAdd"
  input: "dense_1/MatMul"
  input: "dense_1/bias/read"
  attr {
    key: "T"
    value {
      type: DT_FLOAT
    }
  }
  attr {
    key: "_output_shapes"
    value {
      list {
        shape {
          dim {
            size: -1
          }
          dim {
            size: 4
          }
        }
      }
    }
  }
  attr {
    key: "data_format"
    value {
      s: "NHWC"
    }
  }
}
node {
  name: "dense_1/Relu"
  op: "Relu"
  input: "dense_1/BiasAdd"
  attr {
    key: "T"
    value {
      type: DT_FLOAT
    }
  }
  attr {
    key: "_output_shapes"
    value {
      list {
        shape {
          dim {
            size: -1
          }
          dim {
            size: 4
          }
        }
      }
    }
  }
}
node {
  name: "dense_2/kernel/Initializer/random_uniform/shape"
  op: "Const"
  attr {
    key: "_class"
    value {
      list {
        s: "loc:@dense_2/kernel"
      }
    }
  }
  attr {
    key: "_output_shapes"
    value {
      list {
        shape {
          dim {
            size: 2
          }
        }
      }
    }
  }
  attr {
    key: "dtype"
    value {
      type: DT_INT32
    }
  }
  attr {
    key: "value"
    value {
      tensor {
        dtype: DT_INT32
        tensor_shape {
          dim {
            size: 2
          }
        }
        tensor_content: "\004\000\000\000\001\000\000\000"
      }
    }
  }
}
node {
  name: "dense_2/kernel/Initializer/random_uniform/min"
  op: "Const"
  attr {
    key: "_class"
    value {
      list {
        s: "loc:@dense_2/kernel"
      }
    }
  }
  attr {
    key: "_output_shapes"
    value {
      list {
        shape {
        }
      }
    }
  }
  attr {
    key: "dtype"
    value {
      type: DT_FLOAT
    }
  }
  attr {
    key: "value"
    value {
      tensor {
        dtype: DT_FLOAT
        tensor_shape {
        }
        float_val: -1.095445156097412
      }
    }
  }
}
node {
  name: "dense_2/kernel/Initializer/random_uniform/max"
  op: "Const"
  attr {
    key: "_class"
    value {
      list {
        s: "loc:@dense_2/kernel"
      }
    }
  }
  attr {
    key: "_output_shapes"
    value {
      list {
        shape {
        }
      }
    }
  }
  attr {
    key: "dtype"
    value {
      type: DT_FLOAT
    }
  }
  attr {
    key: "value"
    value {
      tensor {
        dtype: DT_FLOAT
        tensor_shape {
        }
        float_val: 1.095445156097412
      }
    }
  }
}
node {
  name: "dense_2/kernel/Initializer/random_uniform/RandomUniform"
  op: "RandomUniform"
  input: "dense_2/kernel/Initializer/random_uniform/shape"
  attr {
    key: "T"
    value {
      type: DT_INT32
    }
  }
  attr {
    key: "_class"
    value {
      list {
        s: "loc:@dense_2/kernel"
      }
    }
  }
  attr {
    key: "_output_shapes"
    value {
      list {
        shape {
          dim {
            size: 4
          }
          dim {
            size: 1
          }
        }
      }
    }
  }
  attr {
    key: "dtype"
    value {
      type: DT_FLOAT
    }
  }
  attr {
    key: "seed"
    value {
      i: 0
    }
  }
  attr {
    key: "seed2"
    value {
      i: 0
    }
  }
}
node {
  name: "dense_2/kernel/Initializer/random_uniform/sub"
  op: "Sub"
  input: "dense_2/kernel/Initializer/random_uniform/max"
  input: "dense_2/kernel/Initializer/random_uniform/min"
  attr {
    key: "T"
    value {
      type: DT_FLOAT
    }
  }
  attr {
    key: "_class"
    value {
      list {
        s: "loc:@dense_2/kernel"
      }
    }
  }
  attr {
    key: "_output_shapes"
    value {
      list {
        shape {
        }
      }
    }
  }
}
node {
  name: "dense_2/kernel/Initializer/random_uniform/mul"
  op: "Mul"
  input: "dense_2/kernel/Initializer/random_uniform/RandomUniform"
  input: "dense_2/kernel/Initializer/random_uniform/sub"
  attr {
    key: "T"
    value {
      type: DT_FLOAT
    }
  }
  attr {
    key: "_class"
    value {
      list {
        s: "loc:@dense_2/kernel"
      }
    }
  }
  attr {
    key: "_output_shapes"
    value {
      list {
        shape {
          dim {
            size: 4
          }
          dim {
            size: 1
          }
        }
      }
    }
  }
}
node {
  name: "dense_2/kernel/Initializer/random_uniform"
  op: "Add"
  input: "dense_2/kernel/Initializer/random_uniform/mul"
  input: "dense_2/kernel/Initializer/random_uniform/min"
  attr {
    key: "T"
    value {
      type: DT_FLOAT
    }
  }
  attr {
    key: "_class"
    value {
      list {
        s: "loc:@dense_2/kernel"
      }
    }
  }
  attr {
    key: "_output_shapes"
    value {
      list {
        shape {
          dim {
            size: 4
          }
          dim {
            size: 1
          }
        }
      }
    }
  }
}
node {
  name: "dense_2/kernel"
  op: "VariableV2"
  attr {
    key: "_class"
    value {
      list {
        s: "loc:@dense_2/kernel"
      }
    }
  }
  attr {
    key: "_output_shapes"
    value {
      list {
        shape {
          dim {
            size: 4
          }
          dim {
            size: 1
          }
        }
      }
    }
  }
  attr {
    key: "container"
    value {
      s: ""
    }
  }
  attr {
    key: "dtype"
    value {
      type: DT_FLOAT
    }
  }
  attr {
    key: "shape"
    value {
      shape {
        dim {
          size: 4
        }
        dim {
          size: 1
        }
      }
    }
  }
  attr {
    key: "shared_name"
    value {
      s: ""
    }
  }
}
node {
  name: "dense_2/kernel/Assign"
  op: "Assign"
  input: "dense_2/kernel"
  input: "dense_2/kernel/Initializer/random_uniform"
  attr {
    key: "T"
    value {
      type: DT_FLOAT
    }
  }
  attr {
    key: "_class"
    value {
      list {
        s: "loc:@dense_2/kernel"
      }
    }
  }
  attr {
    key: "_output_shapes"
    value {
      list {
        shape {
          dim {
            size: 4
          }
          dim {
            size: 1
          }
        }
      }
    }
  }
  attr {
    key: "use_locking"
    value {
      b: true
    }
  }
  attr {
    key: "validate_shape"
    value {
      b: true
    }
  }
}
node {
  name: "dense_2/kernel/read"
  op: "Identity"
  input: "dense_2/kernel"
  attr {
    key: "T"
    value {
      type: DT_FLOAT
    }
  }
  attr {
    key: "_class"
    value {
      list {
        s: "loc:@dense_2/kernel"
      }
    }
  }
  attr {
    key: "_output_shapes"
    value {
      list {
        shape {
          dim {
            size: 4
          }
          dim {
            size: 1
          }
        }
      }
    }
  }
}
node {
  name: "dense_2/bias/Initializer/zeros/shape_as_tensor"
  op: "Const"
  attr {
    key: "_class"
    value {
      list {
        s: "loc:@dense_2/bias"
      }
    }
  }
  attr {
    key: "_output_shapes"
    value {
      list {
        shape {
          dim {
            size: 1
          }
        }
      }
    }
  }
  attr {
    key: "dtype"
    value {
      type: DT_INT32
    }
  }
  attr {
    key: "value"
    value {
      tensor {
        dtype: DT_INT32
        tensor_shape {
          dim {
            size: 1
          }
        }
        int_val: 1
      }
    }
  }
}
node {
  name: "dense_2/bias/Initializer/zeros/Const"
  op: "Const"
  attr {
    key: "_class"
    value {
      list {
        s: "loc:@dense_2/bias"
      }
    }
  }
  attr {
    key: "_output_shapes"
    value {
      list {
        shape {
        }
      }
    }
  }
  attr {
    key: "dtype"
    value {
      type: DT_FLOAT
    }
  }
  attr {
    key: "value"
    value {
      tensor {
        dtype: DT_FLOAT
        tensor_shape {
        }
        float_val: 0.0
      }
    }
  }
}
node {
  name: "dense_2/bias/Initializer/zeros"
  op: "Fill"
  input: "dense_2/bias/Initializer/zeros/shape_as_tensor"
  input: "dense_2/bias/Initializer/zeros/Const"
  attr {
    key: "T"
    value {
      type: DT_FLOAT
    }
  }
  attr {
    key: "_class"
    value {
      list {
        s: "loc:@dense_2/bias"
      }
    }
  }
  attr {
    key: "_output_shapes"
    value {
      list {
        shape {
          dim {
            size: 1
          }
        }
      }
    }
  }
  attr {
    key: "index_type"
    value {
      type: DT_INT32
    }
  }
}
node {
  name: "dense_2/bias"
  op: "VariableV2"
  attr {
    key: "_class"
    value {
      list {
        s: "loc:@dense_2/bias"
      }
    }
  }
  attr {
    key: "_output_shapes"
    value {
      list {
        shape {
          dim {
            size: 1
          }
        }
      }
    }
  }
  attr {
    key: "container"
    value {
      s: ""
    }
  }
  attr {
    key: "dtype"
    value {
      type: DT_FLOAT
    }
  }
  attr {
    key: "shape"
    value {
      shape {
        dim {
          size: 1
        }
      }
    }
  }
  attr {
    key: "shared_name"
    value {
      s: ""
    }
  }
}
node {
  name: "dense_2/bias/Assign"
  op: "Assign"
  input: "dense_2/bias"
  input: "dense_2/bias/Initializer/zeros"
  attr {
    key: "T"
    value {
      type: DT_FLOAT
    }
  }
  attr {
    key: "_class"
    value {
      list {
        s: "loc:@dense_2/bias"
      }
    }
  }
  attr {
    key: "_output_shapes"
    value {
      list {
        shape {
          dim {
            size: 1
          }
        }
      }
    }
  }
  attr {
    key: "use_locking"
    value {
      b: true
    }
  }
  attr {
    key: "validate_shape"
    value {
      b: true
    }
  }
}
node {
  name: "dense_2/bias/read"
  op: "Identity"
  input: "dense_2/bias"
  attr {
    key: "T"
    value {
      type: DT_FLOAT
    }
  }
  attr {
    key: "_class"
    value {
      list {
        s: "loc:@dense_2/bias"
      }
    }
  }
  attr {
    key: "_output_shapes"
    value {
      list {
        shape {
          dim {
            size: 1
          }
        }
      }
    }
  }
}
node {
  name: "dense_2/MatMul"
  op: "MatMul"
  input: "dense_1/Relu"
  input: "dense_2/kernel/read"
  attr {
    key: "T"
    value {
      type: DT_FLOAT
    }
  }
  attr {
    key: "_output_shapes"
    value {
      list {
        shape {
          dim {
            size: -1
          }
          dim {
            size: 1
          }
        }
      }
    }
  }
  attr {
    key: "transpose_a"
    value {
      b: false
    }
  }
  attr {
    key: "transpose_b"
    value {
      b: false
    }
  }
}
node {
  name: "dense_2/BiasAdd"
  op: "BiasAdd"
  input: "dense_2/MatMul"
  input: "dense_2/bias/read"
  attr {
    key: "T"
    value {
      type: DT_FLOAT
    }
  }
  attr {
    key: "_output_shapes"
    value {
      list {
        shape {
          dim {
            size: -1
          }
          dim {
            size: 1
          }
        }
      }
    }
  }
  attr {
    key: "data_format"
    value {
      s: "NHWC"
    }
  }
}
node {
  name: "logistic_loss/zeros_like"
  op: "ZerosLike"
  input: "dense_2/BiasAdd"
  attr {
    key: "T"
    value {
      type: DT_FLOAT
    }
  }
  attr {
    key: "_output_shapes"
    value {
      list {
        shape {
          dim {
            size: -1
          }
          dim {
            size: 1
          }
        }
      }
    }
  }
}
node {
  name: "logistic_loss/GreaterEqual"
  op: "GreaterEqual"
  input: "dense_2/BiasAdd"
  input: "logistic_loss/zeros_like"
  attr {
    key: "T"
    value {
      type: DT_FLOAT
    }
  }
  attr {
    key: "_output_shapes"
    value {
      list {
        shape {
          dim {
            size: -1
          }
          dim {
            size: 1
          }
        }
      }
    }
  }
}
node {
  name: "logistic_loss/Select"
  op: "Select"
  input: "logistic_loss/GreaterEqual"
  input: "dense_2/BiasAdd"
  input: "logistic_loss/zeros_like"
  attr {
    key: "T"
    value {
      type: DT_FLOAT
    }
  }
  attr {
    key: "_output_shapes"
    value {
      list {
        shape {
          dim {
            size: -1
          }
          dim {
            size: 1
          }
        }
      }
    }
  }
}
node {
  name: "logistic_loss/Neg"
  op: "Neg"
  input: "dense_2/BiasAdd"
  attr {
    key: "T"
    value {
      type: DT_FLOAT
    }
  }
  attr {
    key: "_output_shapes"
    value {
      list {
        shape {
          dim {
            size: -1
          }
          dim {
            size: 1
          }
        }
      }
    }
  }
}
node {
  name: "logistic_loss/Select_1"
  op: "Select"
  input: "logistic_loss/GreaterEqual"
  input: "logistic_loss/Neg"
  input: "dense_2/BiasAdd"
  attr {
    key: "T"
    value {
      type: DT_FLOAT
    }
  }
  attr {
    key: "_output_shapes"
    value {
      list {
        shape {
          dim {
            size: -1
          }
          dim {
            size: 1
          }
        }
      }
    }
  }
}
node {
  name: "logistic_loss/mul"
  op: "Mul"
  input: "dense_2/BiasAdd"
  input: "IteratorGetNext:1"
  attr {
    key: "T"
    value {
      type: DT_FLOAT
    }
  }
  attr {
    key: "_output_shapes"
    value {
      list {
        shape {
          dim {
            size: -1
          }
          dim {
            size: 1
          }
        }
      }
    }
  }
}
node {
  name: "logistic_loss/sub"
  op: "Sub"
  input: "logistic_loss/Select"
  input: "logistic_loss/mul"
  attr {
    key: "T"
    value {
      type: DT_FLOAT
    }
  }
  attr {
    key: "_output_shapes"
    value {
      list {
        shape {
          dim {
            size: -1
          }
          dim {
            size: 1
          }
        }
      }
    }
  }
}
node {
  name: "logistic_loss/Exp"
  op: "Exp"
  input: "logistic_loss/Select_1"
  attr {
    key: "T"
    value {
      type: DT_FLOAT
    }
  }
  attr {
    key: "_output_shapes"
    value {
      list {
        shape {
          dim {
            size: -1
          }
          dim {
            size: 1
          }
        }
      }
    }
  }
}
node {
  name: "logistic_loss/Log1p"
  op: "Log1p"
  input: "logistic_loss/Exp"
  attr {
    key: "T"
    value {
      type: DT_FLOAT
    }
  }
  attr {
    key: "_output_shapes"
    value {
      list {
        shape {
          dim {
            size: -1
          }
          dim {
            size: 1
          }
        }
      }
    }
  }
}
node {
  name: "logistic_loss"
  op: "Add"
  input: "logistic_loss/sub"
  input: "logistic_loss/Log1p"
  attr {
    key: "T"
    value {
      type: DT_FLOAT
    }
  }
  attr {
    key: "_output_shapes"
    value {
      list {
        shape {
          dim {
            size: -1
          }
          dim {
            size: 1
          }
        }
      }
    }
  }
}
node {
  name: "gradients/Shape"
  op: "Shape"
  input: "logistic_loss"
  attr {
    key: "T"
    value {
      type: DT_FLOAT
    }
  }
  attr {
    key: "_output_shapes"
    value {
      list {
        shape {
          dim {
            size: 2
          }
        }
      }
    }
  }
  attr {
    key: "out_type"
    value {
      type: DT_INT32
    }
  }
}
node {
  name: "gradients/grad_ys_0"
  op: "Const"
  attr {
    key: "_output_shapes"
    value {
      list {
        shape {
        }
      }
    }
  }
  attr {
    key: "dtype"
    value {
      type: DT_FLOAT
    }
  }
  attr {
    key: "value"
    value {
      tensor {
        dtype: DT_FLOAT
        tensor_shape {
        }
        float_val: 1.0
      }
    }
  }
}
node {
  name: "gradients/Fill"
  op: "Fill"
  input: "gradients/Shape"
  input: "gradients/grad_ys_0"
  attr {
    key: "T"
    value {
      type: DT_FLOAT
    }
  }
  attr {
    key: "_output_shapes"
    value {
      list {
        shape {
          dim {
            size: -1
          }
          dim {
            size: 1
          }
        }
      }
    }
  }
  attr {
    key: "index_type"
    value {
      type: DT_INT32
    }
  }
}
node {
  name: "gradients/logistic_loss_grad/Shape"
  op: "Shape"
  input: "logistic_loss/sub"
  attr {
    key: "T"
    value {
      type: DT_FLOAT
    }
  }
  attr {
    key: "_output_shapes"
    value {
      list {
        shape {
          dim {
            size: 2
          }
        }
      }
    }
  }
  attr {
    key: "out_type"
    value {
      type: DT_INT32
    }
  }
}
node {
  name: "gradients/logistic_loss_grad/Shape_1"
  op: "Shape"
  input: "logistic_loss/Log1p"
  attr {
    key: "T"
    value {
      type: DT_FLOAT
    }
  }
  attr {
    key: "_output_shapes"
    value {
      list {
        shape {
          dim {
            size: 2
          }
        }
      }
    }
  }
  attr {
    key: "out_type"
    value {
      type: DT_INT32
    }
  }
}
node {
  name: "gradients/logistic_loss_grad/BroadcastGradientArgs"
  op: "BroadcastGradientArgs"
  input: "gradients/logistic_loss_grad/Shape"
  input: "gradients/logistic_loss_grad/Shape_1"
  attr {
    key: "T"
    value {
      type: DT_INT32
    }
  }
  attr {
    key: "_output_shapes"
    value {
      list {
        shape {
          dim {
            size: -1
          }
        }
        shape {
          dim {
            size: -1
          }
        }
      }
    }
  }
}
node {
  name: "gradients/logistic_loss_grad/Sum"
  op: "Sum"
  input: "gradients/Fill"
  input: "gradients/logistic_loss_grad/BroadcastGradientArgs"
  attr {
    key: "T"
    value {
      type: DT_FLOAT
    }
  }
  attr {
    key: "Tidx"
    value {
      type: DT_INT32
    }
  }
  attr {
    key: "_output_shapes"
    value {
      list {
        shape {
          unknown_rank: true
        }
      }
    }
  }
  attr {
    key: "keep_dims"
    value {
      b: false
    }
  }
}
node {
  name: "gradients/logistic_loss_grad/Reshape"
  op: "Reshape"
  input: "gradients/logistic_loss_grad/Sum"
  input: "gradients/logistic_loss_grad/Shape"
  attr {
    key: "T"
    value {
      type: DT_FLOAT
    }
  }
  attr {
    key: "Tshape"
    value {
      type: DT_INT32
    }
  }
  attr {
    key: "_output_shapes"
    value {
      list {
        shape {
          dim {
            size: -1
          }
          dim {
            size: 1
          }
        }
      }
    }
  }
}
node {
  name: "gradients/logistic_loss_grad/Sum_1"
  op: "Sum"
  input: "gradients/Fill"
  input: "gradients/logistic_loss_grad/BroadcastGradientArgs:1"
  attr {
    key: "T"
    value {
      type: DT_FLOAT
    }
  }
  attr {
    key: "Tidx"
    value {
      type: DT_INT32
    }
  }
  attr {
    key: "_output_shapes"
    value {
      list {
        shape {
          unknown_rank: true
        }
      }
    }
  }
  attr {
    key: "keep_dims"
    value {
      b: false
    }
  }
}
node {
  name: "gradients/logistic_loss_grad/Reshape_1"
  op: "Reshape"
  input: "gradients/logistic_loss_grad/Sum_1"
  input: "gradients/logistic_loss_grad/Shape_1"
  attr {
    key: "T"
    value {
      type: DT_FLOAT
    }
  }
  attr {
    key: "Tshape"
    value {
      type: DT_INT32
    }
  }
  attr {
    key: "_output_shapes"
    value {
      list {
        shape {
          dim {
            size: -1
          }
          dim {
            size: 1
          }
        }
      }
    }
  }
}
node {
  name: "gradients/logistic_loss_grad/tuple/group_deps"
  op: "NoOp"
  input: "^gradients/logistic_loss_grad/Reshape"
  input: "^gradients/logistic_loss_grad/Reshape_1"
}
node {
  name: "gradients/logistic_loss_grad/tuple/control_dependency"
  op: "Identity"
  input: "gradients/logistic_loss_grad/Reshape"
  input: "^gradients/logistic_loss_grad/tuple/group_deps"
  attr {
    key: "T"
    value {
      type: DT_FLOAT
    }
  }
  attr {
    key: "_class"
    value {
      list {
        s: "loc:@gradients/logistic_loss_grad/Reshape"
      }
    }
  }
  attr {
    key: "_output_shapes"
    value {
      list {
        shape {
          dim {
            size: -1
          }
          dim {
            size: 1
          }
        }
      }
    }
  }
}
node {
  name: "gradients/logistic_loss_grad/tuple/control_dependency_1"
  op: "Identity"
  input: "gradients/logistic_loss_grad/Reshape_1"
  input: "^gradients/logistic_loss_grad/tuple/group_deps"
  attr {
    key: "T"
    value {
      type: DT_FLOAT
    }
  }
  attr {
    key: "_class"
    value {
      list {
        s: "loc:@gradients/logistic_loss_grad/Reshape_1"
      }
    }
  }
  attr {
    key: "_output_shapes"
    value {
      list {
        shape {
          dim {
            size: -1
          }
          dim {
            size: 1
          }
        }
      }
    }
  }
}
node {
  name: "gradients/logistic_loss/sub_grad/Shape"
  op: "Shape"
  input: "logistic_loss/Select"
  attr {
    key: "T"
    value {
      type: DT_FLOAT
    }
  }
  attr {
    key: "_output_shapes"
    value {
      list {
        shape {
          dim {
            size: 2
          }
        }
      }
    }
  }
  attr {
    key: "out_type"
    value {
      type: DT_INT32
    }
  }
}
node {
  name: "gradients/logistic_loss/sub_grad/Shape_1"
  op: "Shape"
  input: "logistic_loss/mul"
  attr {
    key: "T"
    value {
      type: DT_FLOAT
    }
  }
  attr {
    key: "_output_shapes"
    value {
      list {
        shape {
          dim {
            size: 2
          }
        }
      }
    }
  }
  attr {
    key: "out_type"
    value {
      type: DT_INT32
    }
  }
}
node {
  name: "gradients/logistic_loss/sub_grad/BroadcastGradientArgs"
  op: "BroadcastGradientArgs"
  input: "gradients/logistic_loss/sub_grad/Shape"
  input: "gradients/logistic_loss/sub_grad/Shape_1"
  attr {
    key: "T"
    value {
      type: DT_INT32
    }
  }
  attr {
    key: "_output_shapes"
    value {
      list {
        shape {
          dim {
            size: -1
          }
        }
        shape {
          dim {
            size: -1
          }
        }
      }
    }
  }
}
node {
  name: "gradients/logistic_loss/sub_grad/Sum"
  op: "Sum"
  input: "gradients/logistic_loss_grad/tuple/control_dependency"
  input: "gradients/logistic_loss/sub_grad/BroadcastGradientArgs"
  attr {
    key: "T"
    value {
      type: DT_FLOAT
    }
  }
  attr {
    key: "Tidx"
    value {
      type: DT_INT32
    }
  }
  attr {
    key: "_output_shapes"
    value {
      list {
        shape {
          unknown_rank: true
        }
      }
    }
  }
  attr {
    key: "keep_dims"
    value {
      b: false
    }
  }
}
node {
  name: "gradients/logistic_loss/sub_grad/Reshape"
  op: "Reshape"
  input: "gradients/logistic_loss/sub_grad/Sum"
  input: "gradients/logistic_loss/sub_grad/Shape"
  attr {
    key: "T"
    value {
      type: DT_FLOAT
    }
  }
  attr {
    key: "Tshape"
    value {
      type: DT_INT32
    }
  }
  attr {
    key: "_output_shapes"
    value {
      list {
        shape {
          dim {
            size: -1
          }
          dim {
            size: 1
          }
        }
      }
    }
  }
}
node {
  name: "gradients/logistic_loss/sub_grad/Sum_1"
  op: "Sum"
  input: "gradients/logistic_loss_grad/tuple/control_dependency"
  input: "gradients/logistic_loss/sub_grad/BroadcastGradientArgs:1"
  attr {
    key: "T"
    value {
      type: DT_FLOAT
    }
  }
  attr {
    key: "Tidx"
    value {
      type: DT_INT32
    }
  }
  attr {
    key: "_output_shapes"
    value {
      list {
        shape {
          unknown_rank: true
        }
      }
    }
  }
  attr {
    key: "keep_dims"
    value {
      b: false
    }
  }
}
node {
  name: "gradients/logistic_loss/sub_grad/Neg"
  op: "Neg"
  input: "gradients/logistic_loss/sub_grad/Sum_1"
  attr {
    key: "T"
    value {
      type: DT_FLOAT
    }
  }
  attr {
    key: "_output_shapes"
    value {
      list {
        shape {
          unknown_rank: true
        }
      }
    }
  }
}
node {
  name: "gradients/logistic_loss/sub_grad/Reshape_1"
  op: "Reshape"
  input: "gradients/logistic_loss/sub_grad/Neg"
  input: "gradients/logistic_loss/sub_grad/Shape_1"
  attr {
    key: "T"
    value {
      type: DT_FLOAT
    }
  }
  attr {
    key: "Tshape"
    value {
      type: DT_INT32
    }
  }
  attr {
    key: "_output_shapes"
    value {
      list {
        shape {
          dim {
            size: -1
          }
